n g</w> 332628795
n g 191166568
n h 169547335
_ t 167968353
c h 145492609
t h 110764241
n _ 109177419
n h</w> 101507575
k h 89069348
t r 87655961
ng _ 79615794
p h 72438341
i ệ 70759351
i _ 59540946
g i 59148400
_t h 56429132
t _ 50673512
nh _ 50589398
q u 50019260
ê n</w> 46619430
ư ờ 45121772
i ế 44332598
v à</w> 41681266
ớ i</w> 41352432
c ủ 41220587
á c</w> 41190750
củ a</w> 40983817
c _ 40763430
ư ợ 39611667
_t r 39390753
ô ng</w> 38880491
u y 38525063
u _ 32676642
o ng</w> 32369924
m _ 31540657
l à</w> 31244427
ạ i</w> 31238964
i ề 29728035
T h 28676349
c ác</w> 28419920
ượ c</w> 27731106
c ó</w> 27384443
c h</w> 26189596
đ ược</w> 26186884
à y</w> 25574989
tr ong</w> 24564737
ư ớ 24555412
a _ 23971570
ch o</w> 23288433
m ộ 22990997
v ới</w> 22975162
ấ t</w> 22632070
o _ 22400024
đ ã</w> 22372386
h o 21714824
ng ườ 21700305
i ể 21221752
T r 20750981
ư ơ 20729839
ng h 20578342
ì nh</w> 20218085
mộ t</w> 19190559
kh ông</w> 19033286
â n</w> 18708569
i ê 18676681
ngườ i</w> 18486817
ữ ng</w> 18369299
N g 18092536
y _ 17969381
n ă 17723287
à o</w> 17423149
a y</w> 17419910
iệ n</w> 17353455
a n</w> 17248481
h à 16696544
iề u</w> 16606153
ầ n</w> 16332253
nh ững</w> 16209192
ô ng_ 16110370
ướ c</w> 16093769
ế n</w> 15928396
i ên</w> 15872596
ng _t 15830577
a ng</w> 15819156
o à 15762245
ườ ng</w> 15578950
u ố 15549739
n ày</w> 15142344
đ ộ 15042718
C h 14932206
đ ể</w> 14574687
ả i</w> 14544098
p _ 14522086
ứ c</w> 13841164
a i</w> 13833479
ậ n</w> 13659134
kh i</w> 13485976
â n_ 12803704
v ề</w> 12794670
ũ ng</w> 12740215
ô i</w> 12675817
c á 12670549
nă m</w> 12669708
đ ị 12634255
r a</w> 12614970
đ ến</w> 12551778
n _t 12483202
2 0 12282516
a u</w> 12184709
đ ầ 12091286
P h 11970520
â y</w> 11945993
a nh</w> 11897919
ù ng</w> 11867359
e o</w> 11697247
l à 11538788
i nh</w> 11494182
v ào</w> 11309450
c ũng</w> 11262713
à _ 11257277
đ ó</w> 11161360
tr ên</w> 11150236
a o</w> 10948363
nh iều</w> 10917396
á n</w> 10906922
ấ t_ 10896411
t ại</w> 10882484
iệ c</w> 10805826
đ ồ 10738813
s ẽ</w> 10734824
t ừ</w> 10650528
ph á 10500526
N h 10322380
_ h 10132204
ươ ng</w> 9994132
ơ n</w> 9958866
_th ể</w> 9874856
v iệc</w> 9848229
ố ng</w> 9814922
b ị</w> 9798593
a m</w> 9783185
u ộ 9752335
ạ n</w> 9711537
ộ i</w> 9546038
iế t</w> 9388566
l ại</w> 9359527
ậ t</w> 9222100
c o 9180610
à nh</w> 9168593
ư ng</w> 9150555
á ng</w> 9084326
ự c</w> 9062190
ụ c</w> 9020138
nh ư</w> 8834635
ph ải</w> 8801310
kh o 8722116
h ọ 8706070
ò n</w> 8643757
b ả 8620833
ấ y</w> 8545618
ằ ng</w> 8478478
ế t</w> 8405065
s ố</w> 8392701
iế n</w> 8309591
20 1 8280786
a n 8235870
ư a</w> 8224867
_ l 8219354
ng ày</w> 8219352
đ ạ 8215352
i nh_ 8064620
ượ ng</w> 8042788
ờ i</w> 8015124
ch í 8004726
iệ t_ 8001976
n ước</w> 7980965
s ự</w> 7939215
đị nh</w> 7922201
i n</w> 7883322
là m</w> 7796816
n _th 7780484
ổ i</w> 7772476
độ ng</w> 7702933
a n_ 7637068
ì nh_ 7613122
a nh_ 7564471
ch uy 7538928
iệ u</w> 7524291
iê n_ 7519992
ẫ n</w> 7480614
t iế 7428664
u ng_ 7414528
ư ở 7360641
N am</w> 7324041
ô ng_t 7321490
_ nh 7316078
đ ố 7210599
_ s 7202143
_ d 7195012
ự c_ 7172118
d ự 7124990
uộ c</w> 7104127
u _t 7033911
c òn</w> 7032011
ă n_ 6983616
ả n_ 6965374
h ơn</w> 6923814
qu y 6915916
b á 6887101
c ó 6823076
e r 6796243
c ả 6777498
c ông_ 6745837
ò ng</w> 6740722
h iện</w> 6678818
ậ p</w> 6609529
ch ỉ</w> 6604653
ươ ng_ 6554128
nh ưng</w> 6504177
a r 6493350
b iết</w> 6489317
ưở ng</w> 6471514
đ ang</w> 6441404
đồ ng</w> 6434910
u ng</w> 6413213
V iệt_ 6409480
gi ả 6392548
à ng</w> 6365294
ấ p</w> 6340557
s au</w> 6332885
ngh iệ 6305296
K h 6293473
th ì</w> 6258980
s á 6243083
_ ch 6218420
v iên</w> 6173669
ụ ng</w> 6167660
ch iế 6126687
ng _th 6122301
l o 6116453
hà ng</w> 6056677
m ới</w> 6039772
c ơ 6021072
đ i</w> 6000449
Việt_ Nam</w> 5976339
m ạ 5922943
i ễ 5922180
à i</w> 5919841
a o_ 5912566
nh ất</w> 5907879
i _t 5841371
ú c</w> 5841141
ế t_ 5811774
ế _ 5790712
t u 5785905
kh á 5776387
à nh_ 5750237
iể m</w> 5745214
r ất</w> 5723125
a m_ 5720589
c ầ 5712483
ệ n</w> 5706674
G i 5703761
qu a</w> 5677150
x u 5664641
ă n</w> 5629921
iể n</w> 5621719
ê n_ 5620163
c ùng</w> 5616678
í ch</w> 5611670
v ụ</w> 5560717
m à</w> 5547994
m ình</w> 5544781
c _t 5544560
có _thể</w> 5525997
á i</w> 5500896
ơ i</w> 5498182
0 0</w> 5494178
i n 5471667
họ c</w> 5416363
h ợ 5378243
ữ a</w> 5372235
l u 5368885
th eo</w> 5363749
Q u 5343594
đầ u</w> 5343281
n ó 5339006
t ổ 5319945
ờ i_ 5287857
nh à</w> 5279417
c ả</w> 5279150
ị ch</w> 5259603
Q uố 5248973
ă ng</w> 5240544
co n</w> 5237509
l ớ 5232450
n ên</w> 5227765
e m</w> 5221994
a l 5207669
ừ ng</w> 5171412
ho ạ 5166231
iề n</w> 5123865
ặ t</w> 5099694
i_ d 5097438
gi a</w> 5078029
oà n</w> 5067647
d o 5060064
gi á</w> 5046583
iệ t</w> 5040234
â y_ 5020611
gi á 4970430
th ực_ 4947311
n_ đ 4922793
â m</w> 4908002
ch _ 4884704
ề n</w> 4866857
Ng uy 4844565
t ôi</w> 4799345
đầ u_t 4787385
nh ận</w> 4767398
ả ng</w> 4762882
oà i</w> 4760954
ỉ nh</w> 4756821
ô n</w> 4749745
ắ c</w> 4743715
tr ước</w> 4742842
t ố 4741078
ng _tr 4740991
h iệ 4737064
i _th 4703209
đ iểm</w> 4702007
ch ú 4699343
l ên</w> 4694177
v ậ 4676804
đ á 4672774
đ ây</w> 4672034
ườ ng_ 4663321
t à 4637592
c ao</w> 4634722
i a</w> 4632316
nghiệ p</w> 4630784
v ẫn</w> 4626407
m á 4622233
t ới</w> 4602427
đ ề 4599244
ả n</w> 4583498
b ộ</w> 4494515
th áng</w> 4492384
ồ i</w> 4472043
th ành_ 4464433
Th eo</w> 4463109
ắ t</w> 4462487
n ay</w> 4435077
ọ ng</w> 4431691
l ượng</w> 4351939
h ai</w> 4338350
ạ o</w> 4318992
v ì</w> 4316312
â u</w> 4310522
ấ u</w> 4292999
th ời_ 4276927
kh ác</w> 4271956
à n</w> 4239333
qu an</w> 4233462
đ iề 4205325
ế u</w> 4192208
d o</w> 4185257
h ọ</w> 4134896
c ấp</w> 4127963
cá ch</w> 4127894
b ạn</w> 4112912
r ằng</w> 4089469
a m 4081413
í nh</w> 4079651
ứ ng</w> 4043832
e n 4030800
ồ ng</w> 4023119
H à_ 4016232
lớ n</w> 4003951
M ỹ</w> 3994421
qu ố 3991285
nh _t 3958438
ứ c_ 3956904
_tr ường</w> 3956726
ị _ 3939486
e _ 3903463
ê m</w> 3901671
ó ng</w> 3871233
chí nh</w> 3863057
nh _th 3859163
nó i</w> 3852405
d iễ 3850341
o r 3825970
ố i</w> 3802197
o n 3787760
Tr ong</w> 3785091
x e</w> 3764374
Nguy ễ 3758472
ắ ng</w> 3722614
nh à_ 3700600
s ử 3697831
t uy 3695846
ướ ng</w> 3656811
Nguyễ n_ 3651922
u a</w> 3647304
t i 3645817
ọ i</w> 3641876
t ỉnh</w> 3601946
c ông</w> 3597293
nă ng</w> 3578361
ầ n_ 3565280
mộ t_ 3565225
ng uy 3559802
ủ _t 3556256
đ ường</w> 3549413
gi an</w> 3529032
1 9 3524121
nh ân</w> 3514456
ỗ i</w> 3508495
b ằng</w> 3500327
l ần</w> 3498955
ch ưa</w> 3494770
t _tr 3490187
t ì 3475022
y ê 3471624
Tr ung_ 3451845
hà nh</w> 3448137
n ào</w> 3445324
c_ s 3445293
đ ộ</w> 3441952
c uộc</w> 3439043
ả nh</w> 3426726
qu ả</w> 3419459
gi ới</w> 3409650
c ô</w> 3405244
h ay</w> 3405082
s ản_ 3401364
_ch ức</w> 3400051
nh _tr 3388553
H o 3386518
ẩ m</w> 3380997
p _t 3377317
à n_ 3361529
o n</w> 3347673
a_ đ 3314975
á t</w> 3284895
h uy 3274051
th ấy</w> 3267759
ú t</w> 3262276
v ực</w> 3244988
h ạ 3230253
Quố c</w> 3223222
dự _ 3221806
ặ c</w> 3217423
cầ u</w> 3217048
c ông_t 3210154
ỏ i</w> 3208955
ấ n</w> 3204833
ạ i_ 3203267
A nh</w> 3198927
ắ n</w> 3198225
l ý</w> 3195400
a i_ 3182280
á c_ 3177106
iể u</w> 3154186
n_ l 3144752
u _th 3140660
ả o</w> 3129292
ộ i_ 3121004
ặ c_ 3118433
hợ p</w> 3118039
ph ạ 3107781
th am_ 3104519
c ần</w> 3088451
_d ụng</w> 3078327
ự _ 3071871
đ ưa</w> 3060993
_nh iên</w> 3056703
dự ng</w> 3051024
h ình</w> 3045211
thực_ hiện</w> 3045062
e l 3040498
tr iệu</w> 3022058
th iế 3021946
T uy 3016363
b ệ 2999348
tổ _chức</w> 2997293
sử _dụng</w> 2993012
e n</w> 2989826
đị a_ 2977180
đố i_ 2960558
. 0 2960134
ồ n</w> 2959345
th u 2955632
B ộ</w> 2951674
ph ần</w> 2947998
N ội</w> 2943287
ph ẩm</w> 2929775
bá o</w> 2928834
ơ n_ 2924978
e s 2918083
ừ a</w> 2905860
T ổ 2905070
uố n</w> 2903331
Hà_ Nội</w> 2900226
n _tr 2899180
đạ o</w> 2894623
kh iến</w> 2864670
a y_ 2860031
t iền</w> 2858688
m ặt</w> 2857439
â u_ 2857371
qu y_ 2845691
th ị 2834972
_h ội</w> 2831822
g ần</w> 2825154
ắ c_ 2815715
t_tr iển</w> 2809579
ho á</w> 2805251
ây_ dựng</w> 2799675
ph ố</w> 2794927
. . 2790627
phá t_ 2786471
ủ _ 2783583
ướ c_ 2782464
đầu_t ư</w> 2780592
ph ụ 2778011
ằ m</w> 2777414
độ i</w> 2771407
á i_ 2761082
i _tr 2744811
r a 2744427
ể n</w> 2732438
tu ổi</w> 2724471
v ị</w> 2724374
b u 2720516
u ật</w> 2704821
th ế_ 2702909
kho ảng</w> 2702349
hoạ t_ 2688860
a ng_ 2685892
i m</w> 2682190
â m_ 2678922
ậ p_ 2678465
iệ m</w> 2658460
t ăng</w> 2654857
ử a</w> 2653543
đề u</w> 2644055
th ứ</w> 2636683
u _tr 2633413
.0 00</w> 2633306
ổ _ 2630998
i l 2621521
thời_ gian</w> 2617875
nh ân_ 2612869
cơ _ 2612483
hoạt_ động</w> 2610708
xu ất</w> 2610682
gi ờ</w> 2606164
b iệt</w> 2591892
ă ng_ 2591854
g h 2591209
phá t_triển</w> 2590539
b án</w> 2583310
c ứ 2582978
gi ú 2579219
ng_tr ình</w> 2571944
e r</w> 2567236
ọ n</w> 2564224
u_ h 2563731
diễ n</w> 2549403
.. .</w> 2548086
H oà 2545952
a_ s 2535554
bả n</w> 2525387
b ất_ 2525178
é p</w> 2522878
ú ng</w> 2520764
ph òng</w> 2518597
V ăn_ 2516055
ư ới</w> 2514695
1 0</w> 2514535
đ ất</w> 2514323
tà i_ 2510639
b à</w> 2507845
tr ở 2507161
vậ y</w> 2504563
iê u</w> 2502678
ư _ 2498723
d ân</w> 2492475
ng oài</w> 2478442
điề u_ 2475707
ậ t_ 2475037
nh au</w> 2470339
lo ại</w> 2470156
hà nh_ 2467758
g ây</w> 2463694
x ã</w> 2463562
k ết_ 2463145
x ây_dựng</w> 2459771
uố ng</w> 2458810
xu ất_ 2457699
k i 2451072
d ùng</w> 2450849
C ông_ 2425959
ẹ p</w> 2419228
a_đ ình</w> 2413584
th êm</w> 2411059
l ã 2409250
Ả nh</w> 2407599
ý _ 2403393
m ang</w> 2401717
b ên</w> 2401651
chí nh_ 2396834
d ụng</w> 2395317
ă m</w> 2394320
ấ n_ 2393608
qu an_ 2385963
ố n</w> 2383437
ả i_ 2381268
ậ u</w> 2376394
C ác</w> 2374661
gi ữa</w> 2369967
u_ vực</w> 2368013
huy ện</w> 2365314
ứ ng_ 2364008
m uốn</w> 2359889
g ì</w> 2359246
đồ ng_ 2354023
ho ặc</w> 2346663
t ừng</w> 2342526
Ch í 2337365
quy ền</w> 2336696
á nh</w> 2323329
m _tr 2322527
chiế c</w> 2321495
sá ch</w> 2320160
Tuy _nhiên</w> 2317955
a s 2309990
ệ _th 2306952
ông_t in</w> 2305340
mạ nh</w> 2303122
sá t</w> 2293937
ạ c</w> 2278924
t o 2275950
ạ ng</w> 2267922
o_ d 2265200
ặ p</w> 2261992
ho à 2261052
đ o 2258752
t a</w> 2258506
t í 2250660
k iể 2248006
khá ch</w> 2245248
gi a_đình</w> 2242017
s ống</w> 2241883
l iên_ 2238282
o ng_ 2236187
kh u_vực</w> 2234360
ộ t</w> 2231510
é t</w> 2227914
ô _ 2227391
c_t ế</w> 2223325
tr uy 2220550
t ình_ 2217712
giú p</w> 2212116
n ữ</w> 2210892
S au</w> 2198718
bả o_ 2194627
r i 2191541
i_d ân</w> 2191273
giả m</w> 2186961
ả ng_ 2186355
phá p</w> 2186030
ố i_ 2184604
t iê 2181209
ắ t_ 2179671
b ố</w> 2179189
Ng a</w> 2178933
ỷ _ 2175827
ó ng_ 2173258
ọ c</w> 2170363
k inh_ 2170359
chú ng_t 2163674
ch í</w> 2163478
a o 2158029
t in</w> 2156098
b ay</w> 2154268
Trung_ Quốc</w> 2144692
v ừa</w> 2139363
là m_ 2137199
ả y</w> 2137144
_ kh 2132496
Ô ng</w> 2131146
n ơi</w> 2128730
tố t</w> 2126388
dự_ án</w> 2123968
cá o</w> 2122964
ở i</w> 2121616
ch u 2118888
N D</w> 2116832
một_ số</w> 2087404
đ ẹp</w> 2086425
cứ u</w> 2077968
đ iều</w> 2073063
m ua</w> 2071329
u_ cầu</w> 2067013
ầ u</w> 2059707
m ức</w> 2056748
m ẹ</w> 2056204
r ồi</w> 2056148
ặc_ biệt</w> 2044457
i t 2040562
chuy ện</w> 2035631
g ó 2029708
tr ẻ</w> 2022703
do anh_ 2020830
s inh</w> 2016542
ù a</w> 2014930
í a</w> 2010830
a n_t 2009708
p_t ục</w> 2003611
ố c</w> 2003202
ngườ i_dân</w> 1998792
20 0 1989987
n ếu</w> 1986983
Ng h 1986162
ạ nh</w> 1984533
quố c_ 1982512
ph ủ</w> 1976573
t ỷ</w> 1975425
th uộc</w> 1974654
ả _ 1973338
ó m</w> 1969224
e s</w> 1956374
giả i_ 1954973
đối_ với</w> 1952875
đầu_t iên</w> 1949386
m ô 1945783
k iện</w> 1943673
ắ m</w> 1942779
mạ ng</w> 1939450
ấ n_đ 1939308
a c 1938772
ph ương</w> 1936943
v ăn_ 1936903
tiế p_tục</w> 1929229
ì n</w> 1921659
ầ m</w> 1918846
nh_t ế</w> 1916052
đạ t</w> 1914417
th ông_tin</w> 1914136
tr ận</w> 1904249
i d 1903949
d ị 1900871
1 0 1900013
th ông_ 1899261
ợ i</w> 1898049
thế_ giới</w> 1898046
d ẫn</w> 1897579
r o 1897019
H C 1896625
má y</w> 1896109
/ 201 1893622
gi ữ</w> 1886775
ch i 1885615
t ạo</w> 1880918
th i</w> 1879085
oà n_ 1878517
đ iệ 1874382
ngh ị</w> 1870172
l ập</w> 1868963
qu á</w> 1868858
ng u 1864800
ê _ 1861806
s ao</w> 1853602
đ ổi</w> 1850912
đ oàn</w> 1849643
ng o 1846196
gi ải</w> 1842564
ch ị</w> 1841468
đ ơn_ 1835553
Quố c_ 1835141
ạ t</w> 1834660
k ỳ</w> 1833533
m ỗi</w> 1833474
T P 1832018
uố i</w> 1828827
tham_ gia</w> 1828625
ch ỉ 1826470
cá i</w> 1825839
à u</w> 1819063
m ọi</w> 1817386
k ết</w> 1817080
k iến</w> 1811274
ấ p_ 1807665
phạ m</w> 1806022
h ộ</w> 1805764
e t 1803628
kh ó 1803237
b iển</w> 1802839
hoạ ch</w> 1801203
ấn_đ ề</w> 1796972
l i 1796168
quy_ định</w> 1794811
U S 1792616
doanh_ nghiệp</w> 1790240
ườ i</w> 1786272
b àn</w> 1785048
tr ường</w> 1784009
đá nh_ 1782151
ản_ lý</w> 1780145
u_ l 1777386
v ệ</w> 1776592
u ận</w> 1776428
đ ấu</w> 1774444
T u 1772716
kh ai</w> 1771956
ủ_t ịch</w> 1769654
ch ọn</w> 1768711
qu ân</w> 1766449
ấ m</w> 1766022
s ản</w> 1765781
thành_ phố</w> 1763364
ph ía</w> 1752178
thiế t_ 1751384
ộ ng</w> 1749892
ph í</w> 1740336
ặ ng</w> 1738831
Nh ững</w> 1732857
T ôi</w> 1727673
g ái</w> 1726512
ng ành</w> 1724568
ươ ng_trình</w> 1723919
chuy ển</w> 1720830
l úc</w> 1719528
ả nh_ 1717357
đ ủ</w> 1714737
s o 1714409
t _th 1709835
b ắt_ 1707358
k iế 1706750
chuy ên_ 1703153
ô n_ 1703103
b ao_ 1702942
ạ y</w> 1702249
ết_ định</w> 1700468
sản_ xuất</w> 1698922
à i_ 1693574
v ấn_đề</w> 1689234
bệ nh</w> 1685696
H ồ 1680062
t ên</w> 1676824
á p</w> 1676590
gi ả</w> 1675614
đ ả 1675121
kh ông_ 1674799
b ởi</w> 1671577
á o</w> 1670345
ch ủ</w> 1669072
nh ỏ</w> 1668153
thị _trường</w> 1667019
x ã 1663165
s inh_ 1662616
ã i</w> 1660837
ệ_th ống</w> 1651569
m ắt</w> 1644431
b ỏ</w> 1642096
h ội</w> 1640679
ki nh_tế</w> 1639591
kh ẩ 1638058
lu ôn</w> 1635618
US D</w> 1634395
đề _ 1633231
v iện</w> 1632732
v ật</w> 1632334
í t</w> 1630661
g ặp</w> 1629485
yê u</w> 1623503
n ó</w> 1623420
N hà 1622816
ó n</w> 1619701
T P</w> 1619075
ượ t</w> 1612958
hà ng_ 1605545
quy ết</w> 1604685
điề u_tr 1604274
ng _thể</w> 1601487
đ ặc_biệt</w> 1599050
t ậ 1596619
công_t y</w> 1596034
v ốn</w> 1595352
đạ i_ 1587938
x ử 1584901
s ự_ 1581538
M ột</w> 1581256
Th anh_ 1579868
iế ng</w> 1577592
n ữa</w> 1574258
kh ô 1572075
á ch</w> 1571122
tì m</w> 1569372
a d 1569093
s o</w> 1567896
k é 1567137
t _t 1563528
U B 1562215
iê ng</w> 1562158
s áng</w> 1558844
đ á</w> 1551472
ch ủ_ 1551251
i s 1548500
_s ở</w> 1547272
g ọi</w> 1546860
ồ m</w> 1544047
2 0</w> 1543850
ph im</w> 1539553
a t 1536415
_l ý</w> 1532495
công_t ác</w> 1528796
kh ả_ 1528046
i c 1527780
đ ặt</w> 1527729
th o 1527011
ẳ ng</w> 1526607
uy ên</w> 1525887
iể n_ 1525515
xã _hội</w> 1524897
t ự 1523016
Ch ủ_tịch</w> 1522441
ư ỡ 1522043
ng ay</w> 1520040
u ng_t 1516865
th ể 1515486
chu ẩ 1513935
d ù</w> 1512751
ắ p</w> 1511300
qu ản_lý</w> 1509511
l ực</w> 1503448
_ M 1502404
h ưởng</w> 1501242
Kh i</w> 1500527
_th ành</w> 1494906
H u 1494497
tiê u_ 1492187
quốc_ gia</w> 1492026
g ồm</w> 1489351
C ông_t 1487794
_nh ân</w> 1487168
h ệ_thống</w> 1485575
ch ất</w> 1483525
h ỗ 1482226
x ảy</w> 1482011
Đ ại_ 1479342
a y 1478306
Th u 1476412
độ ng_ 1476329
ch á 1475683
ó c</w> 1472478
b iến</w> 1472253
s u 1470059
o o 1469019
m _th 1467182
iệ n_ 1465587
iế p</w> 1465381
UB ND</w> 1460233
h ình_ 1458393
t ác_ 1458265
đo ạn</w> 1456475
ố _ 1455623
khả_ năng</w> 1454036
cả nh</w> 1453136
b a</w> 1452507
Gi á 1452098
_tr ợ</w> 1451810
a g 1448472
th ương_ 1448061
n ước_ 1444644
ch ương_trình</w> 1443933
gi ao</w> 1443208
ứ a</w> 1443044
n ộ 1442904
quy ết_định</w> 1440930
a_s ẻ</w> 1440849
ho a</w> 1440098
truy ề 1439058
_tr ọng</w> 1438168
sản_ phẩm</w> 1436861
Chí nh_ 1435791
k ể</w> 1434656
nh óm</w> 1433708
c ứ</w> 1432511
HC M</w> 1431604
v ùng</w> 1426636
bá o_ 1420591
Ph ó</w> 1419090
_tr ình</w> 1418503
ẳ ng_ 1418311
ố ng_ 1415137
cơ_ quan</w> 1412963
đ iện</w> 1409730
nh ằm</w> 1407358
d ưới</w> 1405216
l ấy</w> 1403883
ch ất_ 1403317
hợ p_ 1402461
m ất</w> 1401233
l ời</w> 1400610
t er 1393435
c uộ 1389066
à o_ 1388732
ph ép</w> 1388366
Công_t y</w> 1386568
ạ ch</w> 1383479
kh á</w> 1382643
ch ống</w> 1380357
kh u</w> 1378664
khô ng_thể</w> 1374452
nghiệ m</w> 1370392
y _t 1369165
bả o</w> 1367245
k ý</w> 1365572
ngu ồn</w> 1365317
â n_t 1365010
co n_ 1364952
b óng</w> 1363445
iể u_ 1362462
ặ t_ 1360457
o u 1360107
Đ ây</w> 1359015
chúng_t ôi</w> 1357837
yê u_cầu</w> 1353655
t oàn_ 1350919
Th ị_ 1350307
ĩ nh_ 1349941
ch ơi</w> 1349820
địa_ phương</w> 1347437
u_ quả</w> 1346374
ực_ lượng</w> 1343281
ừ a_ 1342570
b é</w> 1342014
nh_ đạo</w> 1340839
đ úng</w> 1338855
Đ ức</w> 1336640
1 2</w> 1335845
I n 1335058
do anh</w> 1334489
m ùa</w> 1332334
_ c 1332023
chi a_sẻ</w> 1330483
qu á 1329222
d ịch</w> 1326242
h ệ</w> 1325494
ộ ng_ 1323110
xử _lý</w> 1321846
Nhà _ 1321033
th i_ 1321017
s ang</w> 1320135
o l 1319340
ĩ a</w> 1319238
hỗ _trợ</w> 1318598
ung_t âm</w> 1316404
t iề 1316146
_ L 1315440
h ã 1315100
à y_ 1314187
l ư 1308549
má y_ 1308195
ph ục</w> 1306248
Nh ưng</w> 1304278
t ính</w> 1304104
r õ</w> 1300562
m a 1300561
c àng</w> 1297895
x uống</w> 1297791
nh_th ức</w> 1297576
trở _thành</w> 1295145
ẫ u</w> 1294542
th ành</w> 1289321
Hoà ng_ 1289283
ủ ng_ 1289061
_th ế</w> 1288621
ô m</w> 1288444
đơn_ vị</w> 1286335
h ỏi</w> 1286112
x em</w> 1284205
ủ_t ướng</w> 1283882
iế u</w> 1283795
t ay</w> 1283462
iê n_t 1283435
o _t 1279927
_ r 1278332
hiệ n_ 1274744
m_tr a</w> 1272296
m inh</w> 1270942
qu ân_ 1268047
ạ m</w> 1267219
th ường</w> 1265375
L ê_ 1263023
ọ c_ 1262875
ch ế</w> 1262424
ậ n_ 1261773
N ếu</w> 1258389
_nh iệm</w> 1257070
u_l ịch</w> 1257043
liên_ quan</w> 1256690
Tr ần_ 1256375
Chính_ phủ</w> 1255649
đố i_t 1255364
1 1</w> 1254535
iên_ cứu</w> 1252088
_s inh</w> 1249990
X u 1249962
th ay_ 1249678
a_ học</w> 1249575
đố c</w> 1247935
nh ập</w> 1247244
_th ông</w> 1246832
d ài</w> 1246520
v àng</w> 1246069
qu ận</w> 1244820
Ng ày</w> 1244755
ợ p</w> 1242809
v òng</w> 1240825
ch ung</w> 1240465
V ới</w> 1239545
l e 1237036
làm_ việc</w> 1236477
h ết</w> 1234431
o s 1234237
n ổ 1231667
m ụ 1231131
V iệt</w> 1229894
đ ường_ 1228305
3 0</w> 1227988
á ch 1225338
ất_ cả</w> 1224285
ươ ng_t 1223685
c ổ_ 1219559
Th ủ_tướng</w> 1218898
_tr í</w> 1218797
x ác_ 1216559
o ại</w> 1215702
qu an 1215434
s ắc</w> 1214315
v ị 1214270
lu ật</w> 1210848
tr ường_ 1210675
ngh ệ</w> 1208940
_kh ăn</w> 1207280
tậ p 1207213
l oài</w> 1206955
ạ n_ 1205137
l ợ 1203946
khẩ u</w> 1203837
ng_th ống</w> 1197557
trở _ 1195200
kinh_ doanh</w> 1195081
ch ồng</w> 1194143
ộ _ 1193046
lã nh_đạo</w> 1190332
l iệu</w> 1189649
khó _khăn</w> 1187602
ả o_ 1186673
ph ản_ 1186605
r e 1185872
c ây</w> 1185416
ch ức_ 1184855
kh ó</w> 1184811
quố c_tế</w> 1180992
bệ nh_ 1180677
h ướng</w> 1180279
quan _trọng</w> 1179887
b an</w> 1177926
cơ _sở</w> 1175940
Tổ ng_ 1174772
d a</w> 1174501
TP .</w> 1173453
B ình_ 1172669
phát_ hiện</w> 1172033
n ằm</w> 1171641
ạ m_ 1170157
i _trường</w> 1161836
V N</w> 1161058
l ực_lượng</w> 1158780
á p_ 1158417
a l</w> 1158399
v u 1157734
c ạnh</w> 1156071
kiể m_tra</w> 1153778
v ô_ 1152705
tr iển_ 1150728
u s 1149280
đ êm</w> 1147237
đ à 1145754
cả m</w> 1143916
V i 1143211
phụ _ 1142234
h u 1141765
ng_th ời</w> 1140991
Ng ười</w> 1140173
dị ch_ 1139226
h iệu</w> 1138821
v ọng</w> 1138627
_h ợp</w> 1138382
đả m_ 1138120
tr ự 1137916
Th ái_ 1135886
n_ bộ</w> 1135604
n â 1134180
c ô 1133380
Tr ước</w> 1132717
B ình</w> 1132415
s ức_ 1131035
m ẫu</w> 1130827
đ áng</w> 1129948
giá m_ 1129027
ú c_ 1129015
c uối</w> 1128498
cả m_ 1127612
ế_ hoạch</w> 1125871
b iểu</w> 1125585
d ân_ 1123733
v i</w> 1122320
ò ng_ 1121963
kho a_học</w> 1118870
ă m_ 1117475
d _ 1117361
kh ỏi</w> 1116753
ngh ĩ</w> 1116157
c _th 1111404
_tr ưởng</w> 1110369
ngh iên_cứu</w> 1109797
p _th 1108407
ế n_ 1108271
K i 1103506
tiế ng</w> 1103138
tà u</w> 1103082
th ự 1102621
S ơn</w> 1101952
c_s inh</w> 1098627
th í 1098374
m àu</w> 1098314
n_ s 1097479
ử i</w> 1096389
k ế</w> 1096312
ưỡ ng</w> 1095496
c ung_ 1095290
ao _thông</w> 1094407
a_ h 1094168
vậ n_ 1094062
ù ng_ 1093815
ậ m_ 1089519
ng ân_ 1088677
bảo_ vệ</w> 1088249
t ương_ 1088160
ch ết</w> 1087143
v i_ 1086442
triển_ khai</w> 1085732
n e 1083383
x e 1082510
nh ìn</w> 1082002
r iêng</w> 1074295
1 2 1073805
b ài</w> 1073262
n am</w> 1072251
d ành</w> 1071805
201 7</w> 1071594
d ự</w> 1071041
uy _ 1070710
l òng</w> 1068474
T T 1068215
ch iều</w> 1065424
Công_ an</w> 1064761
ch ạy</w> 1064528
h iểu</w> 1064429
ch ân</w> 1064264
v ợ</w> 1063093
th u</w> 1062207
ảnh_ hưởng</w> 1061618
tr ang_ 1061311
nh iệ 1060826
ẳng_ định</w> 1059326
hiệ u_quả</w> 1056664
nh_tr ạng</w> 1055837
i r 1055433
k ỹ 1054239
N e 1053409
ch ứng_ 1050844
ch o_ 1050677
o án</w> 1050045
s ức</w> 1048680
đ ứng</w> 1048673
kh ẳng_định</w> 1048016
đánh_ giá</w> 1047754
th uố 1046734
H ải_ 1046263
điều_tr a</w> 1046060
L iên_ 1046049
họ c_sinh</w> 1045808
5 0</w> 1044689
n u 1043745
chỉ _ 1043514
T ại</w> 1043422
t e 1041872
_tr ị</w> 1041557
a p 1041344
t ự</w> 1040455
chú ng</w> 1039554
tu ần</w> 1039106
d u_lịch</w> 1038159
ao_ động</w> 1037824
diễ n_ 1037346
Nh ật_ 1036281
ỷ _l 1034763
bu ổi</w> 1034662
nh ạc</w> 1031668
cả nh_ 1030761
chất_ lượng</w> 1029836
s ân_ 1028608
ầ u_ 1026302
n_t ại</w> 1026201
ng ờ</w> 1025663
ch âu_ 1024437
ú _ 1023479
v ài</w> 1021623
Ng ọc_ 1019738
t ất_cả</w> 1017876
phá p_ 1017076
ph ân_ 1016545
H iệ 1016141
L an</w> 1013902
kết_ quả</w> 1013538
ô i_ 1013518
an_t oàn</w> 1013300
Tổ ng_thống</w> 1013069
ữ u</w> 1011549
xuất_ hiện</w> 1011502
ộ c</w> 1011208
c ực</w> 1010092
thời_ điểm</w> 1009949
x e_ 1009773
ồ ng_ 1009430
s ố 1009201
dịch_ vụ</w> 1009063
S ở</w> 1007646
T ừ</w> 1006998
N am_ 1005879
đ ẩ 1004170
ch _s 1003709
g ửi</w> 1002443
bắt_ đầu</w> 1000666
gi ao_ 999235
ng ày_ 999125
i_d iện</w> 996844
lu ận</w> 996810
b an_ 994656
uy ền</w> 994499
lớ p</w> 992313
l e</w> 991657
c ử 991033
đảm_ bảo</w> 990723
ị u</w> 989073
ph út</w> 988861
thay_ đổi</w> 984955
Qu ảng_ 982585
1 / 980861
l ộ</w> 978755
tì nh_trạng</w> 978418
u_th ủ</w> 978240
d uy 975841
ch ủ 974525
x ét</w> 974316
ể n_ 974237
cá n_bộ</w> 973528
iế n_ 973376
d anh_ 971617
đ ời</w> 970892
1 8 969829
nhiệ m_ 969102
hoà n_t 967340
B ắc_ 965703
tiế p_ 965143
h ại</w> 962858
kho ản</w> 960603
truyề n_th 959873
điều_ kiện</w> 958403
R e 958365
phụ_ nữ</w> 957618
m _t 956122
B ản</w> 955851
201 6</w> 955515
trường_ hợp</w> 955492
k ế_hoạch</w> 954315
ch ức</w> 953898
ú i</w> 953882
iề u_ 953305
ư_ vậy</w> 953192
_tr ung</w> 952908
H ội_ 951922
n ạn</w> 951792
quan_ hệ</w> 948770
hình_ ảnh</w> 948765
l ửa</w> 948296
chức_ năng</w> 948065
khá ch_ 947098
phụ c_ 945675
_d o</w> 945316
gi ống</w> 943258
mô i_trường</w> 941870
đối_t ượng</w> 940653
nguy ên_ 939037
cá _nhân</w> 936442
kiể m_ 935590
Đ iều</w> 934133
y ếu</w> 933882
D ương</w> 933059
thành_ công</w> 932313
o_d ục</w> 932188
u ỷ</w> 932120
N ăm</w> 932033
ngh iê 931497
_l ực</w> 931055
b ắt</w> 929569
cung_ cấp</w> 929183
đ ôi</w> 927503
H L 926389
m ôn</w> 924879
nă ng_ 924010
ớ i_ 923967
tổ ng_ 923524
0 %</w> 920460
A n</w> 919628
in e</w> 918252
T ây_ 918010
B an</w> 917858
hoà n_th 917243
hiện_ nay</w> 916806
cầ u_thủ</w> 916388
0 .000</w> 915088
ấn_ công</w> 914078
b ình</w> 913915
th u_h 913827
ngườ i_ 909368
v iết</w> 909110
c_s ống</w> 908730
201 8</w> 908224
vị _trí</w> 906450
k í 906075
m iền</w> 905768
tr ai</w> 905695
oà i_ 904483
t ấn_công</w> 904394
ớ m</w> 904163
trự c_t 901063
d i_ 900926
c_s ĩ</w> 900682
ở _h 900362
Đ ông</w> 900194
Ph áp</w> 899685
Kh ông</w> 899289
so át</w> 898340
HL V</w> 897745
nh à 897698
ngh ĩa</w> 897596
m ại</w> 896956
gi ao_thông</w> 896883
Nh iều</w> 896697
ệ _ 894796
ế p</w> 894563
máy_ bay</w> 893390
u r 893165
ở i_ 892083
văn_ hoá</w> 891308
tiế n_ 890392
ách _nhiệm</w> 889555
tuy ến</w> 889313
ụ _thể</w> 887637
ệ t</w> 886651
M inh_ 884668
1 5 884622
h ạn</w> 883178
ề n_ 882754
giá _trị</w> 881586
l ễ</w> 878408
h ồ 878401
đ ông</w> 877852
công_ nghệ</w> 877676
ậm_ chí</w> 877314
b ổ 876387
phạ t</w> 875579
i m 874273
i_d ung</w> 873982
1 . 873746
è o</w> 873262
su ất</w> 871272
ngh ề</w> 867483
u m 866690
ngh e</w> 866185
v ũ 866073
l ý 862862
p p 861997
oài_ ra</w> 861451
nâ ng</w> 859894
s ớm</w> 859258
giá o</w> 857808
ầ ng</w> 857280
k ê 857006
anh_ ch 856073
Gi ang</w> 855959
_ v 855589
n iên</w> 854877
T o 854640
ẩ m_ 852877
quá _trình</w> 852034
kiế m</w> 852004
th ấp</w> 851342
x uyên</w> 851223
tr ách_nhiệm</w> 849803
v ượt</w> 849688
v ấn</w> 848696
c ăn_ 848338
n_th oại</w> 848062
giải_ quyết</w> 847339
ph ù 847142
khách_ hàng</w> 845881
c a</w> 845074
đá nh</w> 844714
s ông</w> 844603
_th uật</w> 844334
kho ẻ</w> 843829
ụ _ 843625
Nhật_ Bản</w> 843202
c ư</w> 842616
l iên_t 842226
d iện</w> 842040
th ường_ 841493
b ình_ 839726
ẻ _ 839529
p_t ác</w> 839138
t ăng_ 836986
Đ ể</w> 834616
uy ện</w> 834486
nh anh</w> 834114
x a</w> 833650
tr ung_ 831648
tiến_ hành</w> 831326
m u 831126
m ở</w> 828947
an_t âm</w> 827826
chuẩ n_ 827367
vi_ phạm</w> 827004
Vi et 825526
tập _trung</w> 825079
đ àn_ 824739
s e 824365
1 5</w> 823801
cuộ c_sống</w> 823764
Ng oài_ra</w> 823066
á nh_ 822188
ph ối_ 819868
chí nh_thức</w> 819714
phá t</w> 819252
thành_ viên</w> 818443
H àn_ 818416
b ước</w> 818385
S y 817850
ph á</w> 817840
19 9 817820
thiết_ kế</w> 816528
th u_ 816313
e b 816013
thiế u</w> 814145
x in</w> 813556
ĩ nh</w> 813388
ẩ n</w> 810142
m ối</w> 809374
hoàn_t oàn</w> 809116
Giá m_ 809073
c_t iêu</w> 808995
nguy ên</w> 808933
chính_ sách</w> 807865
e l</w> 807425
ch ịu</w> 807187
Ph ạm_ 806817
C ó</w> 806728
tr ả</w> 806270
l ao_động</w> 805301
chúng_t a</w> 805034
c ường</w> 804605
đồ ng_thời</w> 804581
s ân</w> 803776
o m 803355
h ội_ 802895
Đ à_ 802281
K ỳ</w> 801711
đ ảo</w> 801462
Xu ân_ 800975
nu ôi</w> 800768
h ì 800538
Ch ú 799231
Đ ông_ 797055
í _ 796492
qu an_tâm</w> 796350
ĩnh_ vực</w> 795203
n inh</w> 795080
phối_ hợp</w> 794553
m ở 794058
nộ i_dung</w> 793873
đ ất_ 793210
Th ành</w> 792580
b o 791901
b óng_ 790881
c á</w> 790813
Th ành_ 790788
b à 790144
nước_ ngoài</w> 789637
n_ giả</w> 788793
i s</w> 787374
1 , 786952
k ị 786776
c âu</w> 786686
nh ập_ 786404
l ĩnh_vực</w> 784842
ã o</w> 784488
ô _t 784404
V iệc</w> 784369
ậ y</w> 783425
th ật</w> 782866
là ng</w> 782835
ph ương_ 782727
hợ p_tác</w> 782539
cơ _hội</w> 782384
a _t 782340
B ộ 781975
Hồ _ 781845
A n 780735
t a 780422
ệ nh</w> 780220
ố t</w> 780114
địa_ bàn</w> 779945
th ầ 777675
kh í</w> 777536
n_t ượng</w> 776936
x anh</w> 776683
đầ y</w> 776463
thể _h 776431
Nhà_ nước</w> 776356
_th ị</w> 776348
tiế t_ 775953
ph iếu</w> 775672
chá u</w> 775662
c ử</w> 775368
b uộc</w> 775355
n ông_ 775301
Tr ường</w> 774573
độ c_ 774479
m ón</w> 773423
Đ T</w> 773363
c ao_ 772776
nhiệm_ vụ</w> 772263
thuố c</w> 771741
công_ việc</w> 771637
i_t iếng</w> 771222
uố t</w> 771149
cô ng_trình</w> 770680
ch i_ 770374
đ ô 770246
n ặng</w> 768702
nh iên</w> 768629
t âm_ 765434
s a 765073
d òng</w> 764592
i ng 764477
L e 763678
ặ n</w> 763149
ch iến</w> 762503
phục_ vụ</w> 762295
đ ăng_ 762077
o_t ạo</w> 761924
u ổi</w> 760716
Hàn_ Quốc</w> 760542
báo_ cáo</w> 759786
quố c</w> 759182
h át</w> 758190
ơ _ 758164
t ừ 758113
nhân_ dân</w> 756859
gi ành</w> 756270
a v 755881
hã ng</w> 755141
kh u 754632
tì m_ 754155
c ố</w> 753774
thể_h iện</w> 753204
tài_ sản</w> 753156
ệ t_ 752788
họ c_ 751996
khá n_giả</w> 751339
A r 750688
ph ường</w> 750518
th ích</w> 748598
chuẩn_ bị</w> 744884
đề_ nghị</w> 744784
phù _hợp</w> 744554
đ ơn</w> 743954
chuy ến</w> 743951
gi ai_ 743105
_ S 743027
á o_ 742416
nh ất_ 741262
đ óng</w> 740915
đ ỏ</w> 740251
iệ n_t 739995
r ia</w> 739489
n_th ân</w> 738400
mụ c_tiêu</w> 738140
x úc</w> 737899
đạ i_diện</w> 737858
ở_h ữu</w> 737802
nổ i_tiếng</w> 737215
M ar 735269
ô m_ 734966
_ vậy</w> 733376
B ên</w> 733045
bả ng</w> 733028
v ợ 732709
chỉ_ đạo</w> 732055
ạ c_ 731977
tr ình_ 731441
V ũ 731050
tuy ên_ 730782
pháp_ luật</w> 730307
đẩ y</w> 729878
qu ay</w> 728270
đ âu</w> 728246
uố i_ 726856
n ền</w> 725726
T iên</w> 725440
kh a 724891
U ỷ_ 722698
h ồi</w> 722548
ý_ kiến</w> 722264
ấ u_ 722199
v ừa_ 721797
th a 721258
m ặt_ 721221
201 5</w> 721156
ỏ ng</w> 720669
th ế</w> 720374
ch ỗ</w> 718770
b iên_ 717508
u s</w> 716350
thự c_tế</w> 714233
công_ bố</w> 711870
đị nh_ 710944
tr ọ 710380
ng ôi</w> 710095
thu ế</w> 708541
V à</w> 707488
lo ạt</w> 707389
kh uy 707253
v a 706948
Â u</w> 706780
chuyên_ gia</w> 705841
ả _th 705568
tiề n_ 705311
Chú ng_t 705035
r a_ 704619
ch ứng</w> 704484
c ơ</w> 704039
Sy ria</w> 703627
l ị 703454
trực_t iếp</w> 703310
_s ĩ</w> 702847
hợp_ đồng</w> 701340
l ự 699756
ẵ ng</w> 699303
hành_ vi</w> 699072
nh ờ</w> 699070
tr ung_tâm</w> 698395
d ễ</w> 697408
qu anh</w> 697266
bất_ ngờ</w> 697212
sức_ khoẻ</w> 696907
ê u</w> 696647
nh ư_vậy</w> 695608
ch ứ</w> 694888
xác_ định</w> 694331
điệ n_thoại</w> 694297
ướ ng_ 692424
giá o_dục</w> 691674
1 6 690754
b ộ_ 690404
trở_ lại</w> 687593
ọ t</w> 686489
u n 686292
ô ng_th 685974
Đ ến</w> 685723
ch_s ử</w> 685577
giai_ đoạn</w> 684777
chuẩ n</w> 684466
a b 683674
ngân_ hàng</w> 683017
ư u_ 682422
Giám_ đốc</w> 681922
ê n_t 680858
đố i</w> 680587
tr ánh</w> 680512
C ô</w> 680375
đ ồ</w> 679982
ch ế_ 679576
H ải</w> 679249
N ẵng</w> 679235
Ph òng</w> 679111
Quốc_ hội</w> 677673
ạ p</w> 677424
th ắng</w> 677237
ho ạ</w> 676725
tăng_ cường</w> 674663
1 4 674542
P ho 674161
a e</w> 673837
uối_ cùng</w> 672308
iện_t ích</w> 671774
ng_ l 671360
nh_tr ị</w> 671209
Bộ _trưởng</w> 669874
Đ ảng</w> 669093
s ẵ 667749
A l 667239
gh i_ 666475
Đà_ Nẵng</w> 666427
T N 666325
B ắc</w> 666118
hạ ng</w> 665076
nh ận_ 664260
gó p_ 663972
iê m</w> 663724
n iệm</w> 663649
ch ăm_ 663530
kh ủng_ 663492
th anh_ 663397
thương_ mại</w> 662605
a_ chọn</w> 662337
n e</w> 661126
ụ p</w> 660706
h ồ</w> 660530
thiết_ bị</w> 660332
c _tr 659384
an_ ninh</w> 658927
C ục</w> 658522
x o 658187
C òn</w> 657743
3 0 656882
H à</w> 656876
số _l 656581
giá o_ 655638
nhân_ viên</w> 655540
t ập_ 655063
C u 655034
c ửa</w> 654904
c ũ</w> 654892
R o 654830
đ ề</w> 654817
á m</w> 654037
l âu</w> 653246
nh u_cầu</w> 652267
v ăn</w> 651536
nh ớ</w> 651472
ph ần_ 651168
1 7 650960
th ủ_ 650389
thường_ xuyên</w> 650106
ch ung_ 649857
a k 649846
ị nh</w> 649731
K ho 647992
m ộ</w> 647615
d iện_tích</w> 647422
lợ i_ 647403
diễn_ viên</w> 646224
L i 645569
c ộng_ 645330
h ộ 644603
lự a_chọn</w> 644181
ng ồi</w> 643872
má u</w> 643849
L ong</w> 643103
l o_ 641103
đà o_tạo</w> 640906
th ậm_chí</w> 640818
chiế m</w> 640282
ho à</w> 640083
n ối</w> 640037
qu án</w> 639723
i l</w> 639449
bao_ gồm</w> 639340
iế t_ 639017
nó ng</w> 638665
chính_ quyền</w> 638050
1 00</w> 637523
c ố_ 637343
k m</w> 636825
th e 636822
sinh_ viên</w> 635906
nh ư 635831
ặc_ dù</w> 634062
ĩ _ 633257
an d 632578
đàn_ ông</w> 632043
thông_ qua</w> 631271
ph ong_ 631021
chá y</w> 629991
h ôm</w> 629951
thông_ báo</w> 629843
ch ỉnh</w> 629483
_tr ì</w> 629332
n ợ</w> 628767
họ p</w> 627674
a r</w> 627518
kiểm_ soát</w> 627176
t o</w> 626476
đ ô</w> 625609
Ne w 624999
i_t iết</w> 624976
ả _l 624902
tr a 623625
một_ cách</w> 623218
r ừng</w> 622923
ph òng_ 622280
t ử 621783
hoàn_th ành</w> 621329
v ai</w> 620633
ao _t 620524
đ óng_ 620334
1 3 619308
D ự_ 619225
có _ 618632
Tr ung_tâm</w> 617994
đ a_ 617884
m ưa</w> 617508
không_ chỉ</w> 617274
B à</w> 617109
_ ý</w> 616399
ượ ng_ 615994
t ên_ 614939
ư _l 613950
ù i</w> 613922
ch ẳng</w> 613427
t oàn</w> 613190
Ki m_ 612269
ụ_ việc</w> 612168
r ộng</w> 611757
s uốt</w> 611602
cá nh</w> 611583
1 - 610488
u l 610421
ch ấ 609780
Đ ó</w> 609747
C ũng</w> 608723
ậ m</w> 607063
gó p</w> 606215
Hồ ng_ 606185
thi_ đấu</w> 605177
kh ởi_ 604957
Ph á 604784
ả_l ời</w> 603504
m ắc</w> 603250
tuyên_ bố</w> 603088
V ề</w> 602322
ế t_th 602264
ch _th 601924
tr ưởng</w> 601891
bóng_ đá</w> 601736
th ờ 601625
thí _sinh</w> 601304
d u_ 601066
o_d ài</w> 600919
đô _thị</w> 600762
b ức</w> 600503
ộ t_ 600110
ỹ _ 599794
ạn_ nhân</w> 599212
m ong_ 598774
c âu_ 598741
lị ch_sử</w> 598326
k _ 598019
ng ủ</w> 597008
_s ơ</w> 596926
tr ở</w> 596109
kỹ _thuật</w> 595669
t ự_ 594578
chuy ển_ 594391
thu ê</w> 594302
ch ụp</w> 594195
ch i</w> 594040
iê u_ 593788
d i 593458
T ân_ 593381
Ho à</w> 592586
chiế n_th 592511
hạ n_ 591560
d ầu</w> 590535
a_s ĩ</w> 589923
s t 589818
hành_ động</w> 589002
ch ia</w> 587581
s âu</w> 586916
Đ ồng_ 585862
d ân_t 584350
vậ t_ 584320
i_tr ò</w> 584091
i_th ác</w> 583814
thị t</w> 583625
L o 583500
s ở_hữu</w> 583131
b iện_ 583038
qu ý</w> 583022
ương_t iện</w> 582971
M inh</w> 582225
thực_ phẩm</w> 581891
ổ n_ 581190
m ục</w> 580641
_c ơ</w> 580167
v ay</w> 579999
tổ ng</w> 579882
â n_th 578606
gh i</w> 578430
iề m</w> 578173
th iệt_ 577595
tài_ chính</w> 577489
ữ u_ 576433
Ph ú_ 576046
g ốc</w> 576015
p i 575679
ngh ệ_th 575234
c ổ</w> 575083
ag u 574734
Tr iều_ 573935
Tr ung</w> 573817
m inh_ 573493
ph ương_tiện</w> 573317
k g</w> 573063
b ì 572977
ã n</w> 572674
ngh ệ 571113
dị p</w> 570527
thu_h út</w> 570293
ư u</w> 567802
ngày_ càng</w> 566793
tình_ hình</w> 566745
T ết</w> 566595
va i_trò</w> 566536
c uối_cùng</w> 566478
tí ch_ 566155
ch ữa</w> 565603
L uật</w> 564583
cộng_ đồng</w> 562912
u y</w> 562300
kha i_thác</w> 562197
2 5 562124
2 3</w> 561898
Trung_ ương</w> 561671
H ai</w> 561375
đ ổ</w> 560705
ạ o_ 560472
d ạng</w> 560053
h ậ 559689
Qu ang_ 559508
x ử</w> 559082
biện_ pháp</w> 558922
201 0</w> 558547
b ị_ 558054
_M inh</w> 557966
tr ồng</w> 557837
gi ác</w> 557744
t on</w> 557363
đăng_ ký</w> 556840
tr ước_ 556652
l á</w> 556577
gi ấ 556510
giải_ pháp</w> 556310
ké m</w> 555801
ự u</w> 555088
gi ớ 555058
ì _vậy</w> 553734
liên_t ục</w> 552928
í _th 552689
T ây</w> 552142
M o 552137
ổn_ định</w> 551934
ngo ại_ 551737
tích_ cực</w> 551692
ủng_ hộ</w> 551029
ệ nh_ 550840
cơ _thể</w> 550818
nguyên_ nhân</w> 550492
bá c_sĩ</w> 550359
áp_ dụng</w> 550156
tí nh_ 550140
tr ái</w> 549501
A n_ 549236
th ống_ 549047
l ượt</w> 549021
4 0</w> 548694
Nguy ên</w> 548669
s i 548628
hồ _sơ</w> 547781
ng ại</w> 547773
Triều_ Tiên</w> 547741
đị ch</w> 547575
d ạy</w> 546638
n úi</w> 546541
kho a</w> 546020
t ai_ 545962
J o 545628
n ạn_nhân</w> 545365
l ai</w> 545310
iễ m</w> 545177
M i 544759
v ẻ</w> 544513
L oài</w> 544390
n ỗ 543743
ỳ _ 543455
ầ m_ 543071
quân_ sự</w> 542213
M a 542108
ồ n_ 541828
thực_ sự</w> 541323
nó i_ 540822
ô_t ô</w> 540752
co i</w> 540459
x ung_ 540449
truyền_th ống</w> 540436
ứ t</w> 539820
bả n_thân</w> 539717
1 6</w> 539562
th ăm</w> 539498
ch ắn</w> 539369
kh úc</w> 539129
tr ẻ_ 539049
_ch ồng</w> 538443
Chúng_t ôi</w> 538390
ó i</w> 538361
tố i_ 538235
an d</w> 538209
T ài_ 538178
c ụ</w> 538175
c ục</w> 537930
t ầm</w> 537901
nguy _cơ</w> 537801
tr ang</w> 537738
c_ độ</w> 537156
e d 536765
vừa_ qua</w> 536759
y ế 536748
ắ p_ 536510
v ụ_việc</w> 536268
con_ người</w> 536023
n i 535852
châu_ Âu</w> 535750
chú _ý</w> 535643
201 4</w> 534748
n_t ử</w> 534613
s ư</w> 534527
T H 534463
bệnh_ viện</w> 534420
L u 534326
ư ng_ 534318
S u 534101
ho á 533913
h a</w> 533682
_th ao</w> 532987
ch ấp_ 532566
Ng o 532020
19 8 531821
b iểu_ 531335
C o 531335
toàn_ bộ</w> 531261
thành_ lập</w> 530609
ch ứa</w> 530504
tr ái_ 530437
Ng u 530326
anh_ch óng</w> 530114
1 8</w> 529704
a_h ậu</w> 529295
õ i</w> 529175
c ấp_ 529126
cử a_ 528404
B ar 527852
on al 527215
ph úc</w> 527066
kho á</w> 526918
c a_sĩ</w> 526867
nh anh_chóng</w> 526667
ngh ỉ</w> 526354
L inh</w> 526247
N inh</w> 525736
b i 525497
tr ắng</w> 525340
giả i_th 524857
d ừng</w> 524359
nỗ _lực</w> 523957
h ôm_ 523894
Kh ông_ 523688
5 00</w> 522635
hạn_ chế</w> 522338
H ội</w> 522332
sự_ kiện</w> 522232
đầ u_ 521958
uy ển</w> 521888
_r ộng</w> 521488
giao_ dịch</w> 521365
sá ng_t 521128
chi_ phí</w> 520709
Hồ_ Chí 520293
S h 520241
s _ 519783
ư _d 519694
l a 519634
nh_ m 519541
b ại</w> 519369
_t u 519328
tên_ lửa</w> 518880
Hồ_Chí _Minh</w> 518801
oo k</w> 518507
ch ục</w> 517820
Ngh ị_ 517817
ữ _ 517679
điều_tr ị</w> 517672
d ễ 517252
b inh</w> 516373
Tr um 516343
u ng_th 516184
H ọ</w> 516120
ứng_ dụng</w> 515263
D ũng</w> 515132
cho_ phép</w> 514711
vu i</w> 514696
s óc</w> 513828
ao_ đổi</w> 513773
ch ợ</w> 513715
t ấn</w> 513574
nh_th ần</w> 513520
đố i_th 513026
bao_ giờ</w> 512960
Th e_ 512775
th ời</w> 511845
H iện</w> 511618
x ác</w> 511392
c ụ_thể</w> 511343
ph ận</w> 511258
cả m_th 510925
2 5</w> 510922
cuộ c_ 510836
th ẩm_ 510460
ỷ_l ệ</w> 510120
công_ nghiệp</w> 509047
r út</w> 508469
đất_ nước</w> 508388
id eo</w> 507936
_s ung</w> 507882
m_tr ọng</w> 507717
bả n_ 507290
bệnh_ nhân</w> 506980
1 9</w> 506934
chí nh_trị</w> 506863
tr ả_lời</w> 506835
số_l ượng</w> 506765
n êu</w> 506346
Th anh</w> 506286
đ ứa</w> 506259
l o</w> 506036
iễ n_ 505925
t ă 505864
P ar 505731
mở _rộng</w> 505555
xe m_ 504781
th ế 504679
Ho a_ 504406
on e</w> 503872
t ặng</w> 503754
Trum p</w> 503648
ngh èo</w> 503450
B an_ 503247
n iềm</w> 503090
ho à_ 502911
lý _do</w> 501931
vũ _kh 501872
ờ _ 501770
ỉ _ 500878
n ổi</w> 500707
Tu ấn</w> 500519
ụ c_ 499986
chiến_th ắng</w> 499783
l a</w> 499683
Nguyễn_ Văn_ 498531
agu e</w> 497500
ngh ìn</w> 497450
iể m_ 496810
Đ H</w> 496606
Ph ương_ 496538
b ang</w> 495874
c ận</w> 495745
Đ ược</w> 495469
_h ình</w> 495090
b ắn</w> 494779
nhà_ nước</w> 494038
n_l ợi</w> 493817
v i 493348
ne t</w> 493252
bổ _sung</w> 493004
cảnh_ sát</w> 492827
ớ t</w> 492776
ch ờ</w> 492721
ti nh_thần</w> 491973
B ảo_ 491838
th ất_ 491661
nhất_ là</w> 491474
ò i</w> 490670
nh_ phúc</w> 490421
đ ích</w> 490014
chủ_ yếu</w> 489198
v é</w> 488986
tai_ nạn</w> 488861
i_th iệu</w> 488514
tà u_ 488505
quân_ đội</w> 488082
lư u_ 487923
c ắt</w> 487349
c ưới</w> 487305
1 4</w> 487195
đá p_ 487059
đ ón</w> 487006
_t ưởng</w> 486991
vô_ cùng</w> 486933
ph o 486907
m ời</w> 486856
N o 486721
chiế n_ 486639
ké o_dài</w> 486609
ạ ch_ 486113
đ en</w> 485185
to à</w> 484732
ợ t</w> 484672
Vũ _ 484195
điệ n_tử</w> 484178
1 3</w> 483978
m à_ 483780
Q uy 483469
t ập</w> 482484
giả n</w> 482386
e n_ 482282
chăm_ sóc</w> 480836
m ấy</w> 480729
Đ ộ</w> 480664
t ư_ 480135
vợ _chồng</w> 479899
Ch âu</w> 479890
6 0</w> 479684
b ao</w> 479660
P T</w> 479378
n ổ</w> 479367
cảm_th ấy</w> 479075
Ch ỉ</w> 479026
ặ ng_ 478193
giớ i_thiệu</w> 478038
Ngu ồn</w> 477728
ẫ n_ 477686
d ần</w> 477570
ới_ đây</w> 477458
ph iên</w> 477399
ho àn_ 476938
s ợ</w> 476906
Đại_ học</w> 476656
Ph an_ 476558
độ c</w> 476477
Ch iế 476344
tí n_ 476001
é o</w> 475403
m ô</w> 475232
D N</w> 475082
b ật</w> 475081
kinh_ nghiệm</w> 474877
m ặc</w> 474293
hã y</w> 474277
S E 474271
dự_ kiến</w> 473652
góp_ phần</w> 473511
đạ o_ 472969
2 . 472282
ả_th uận</w> 471506
ph óng</w> 471177
Nguyễn_ Thị_ 470669
à u_ 470492
D ù</w> 470147
n ội_ 469988
C P</w> 469889
hạ nh_phúc</w> 469730
trẻ_ em</w> 469391
r ơi</w> 469278
công_ an</w> 469179
nh ấn_ 468941
nghệ_th uật</w> 468747
v er 467967
c a_ 467952
qu en</w> 467909
h ôn</w> 467896
c ậu</w> 467270
ườ n</w> 466579
y_t ế</w> 466510
2 4 466300
đ a</w> 466282
Thái_ Lan</w> 466180
n_đ ại</w> 465890
n_l ược</w> 465826
ết_th úc</w> 465598
qu ê</w> 465156
n_th ức</w> 465102
c ười</w> 464622
Ng ay</w> 464549
ề _ 464318
Uỷ_ ban</w> 464257
m ật</w> 464174
c ộng</w> 463489
dân_t ộc</w> 463383
Ấ n_ 463300
đ em</w> 463070
hiệ n_tại</w> 462916
đáp_ ứng</w> 462778
g a</w> 462639
câu_ chuyện</w> 462405
th à 462310
đ ua</w> 462264
Ph ương</w> 462045
tr ăm</w> 461912
e m 461773
nguy _h 461621
n _trường</w> 461592
tố i</w> 460708
iề n_ 460671
iên_ bản</w> 460411
h ướng_ 460228
tương_ lai</w> 459660
Tr ên</w> 459582
nh_tr a</w> 459142
quy_ hoạch</w> 458901
ề m</w> 458621
tìm_ kiếm</w> 458588
S ơn_ 458512
ổ i_ 458261
c ặp</w> 458252
th ôi</w> 458187
nhà_ đầu_tư</w> 458122
d anh</w> 458059
ó t</w> 457092
ng_tr ưởng</w> 456989
C L 456882
õ _r 456501
2 , 455688
in a</w> 455516
H ùng</w> 455487
C ó 455486
v ùng_ 455231
t ỉ</w> 454903
ẹ n</w> 454674
nhập_ khẩu</w> 454434
í_th ư</w> 454292
trở_ nên</w> 454181
ủ_t ục</w> 454164
ự a</w> 454140
S a 453708
as h 453705
tham_ dự</w> 453649
cho_ hay</w> 453325
2 1</w> 453182
gi a_ 453140
chính_ phủ</w> 453133
t ỷ_lệ</w> 453079
x ếp</w> 452928
ã y</w> 452700
tố c_độ</w> 452021
tr ao</w> 451438
2 - 451289
hiệ n_đại</w> 451186
hành_ chính</w> 451141
In ter 451098
nh_t oán</w> 450746
k ia</w> 450741
tuy ệt_ 450598
e c 450588
du_ khách</w> 450310
200 9</w> 450207
v ệ 449795
b ờ</w> 449772
1 7</w> 449758
ỏ _ 449572
_ch ế</w> 449557
trang_ bị</w> 449361
qu ảng_ 449163
n_t ải</w> 448321
đầ y_ 448084
T S</w> 448006
xuất_ khẩu</w> 447415
ắc_ chắn</w> 447313
ú a</w> 447208
M ột_ 446594
g ắng</w> 445701
đ ại</w> 445692
2 3 445517
văn_ bản</w> 445406
Đ ặc_biệt</w> 445387
nhấn_ mạnh</w> 445121
b ão</w> 444742
Ho á</w> 444578
ượ c_ 444350
b er 444017
l ương</w> 443868
ấ u_h 443862
k ra 443754
s ạch</w> 443530
t er</w> 443449
Đ ức_ 443112
đả m</w> 443083
tă ng_trưởng</w> 442998
_th ức</w> 442454
tiế p</w> 442189
i g 442105
vu i_ 442032
t ạm</w> 441745
á y</w> 441714
ắ n_ 441553
è m</w> 441292
Pho ne</w> 440829
c ổ 440405
b ạc</w> 440294
nghiê m_trọng</w> 440083
I I</w> 439995
n_s àng</w> 439383
báo_ chí</w> 439315
đ au</w> 438387
V ì</w> 438316
ra_ mắt</w> 438189
th ủ_tục</w> 438084
giám_ sát</w> 437970
đại_ học</w> 437965
ac eb 437421
TT X 437218
_ C 437205
k iểu</w> 436968
h y_ 436778
U kra 436581
Nh ân_ 436316
tố t_ 435659
bì nh_th 435125
khuy ến_ 434861
x ong</w> 434621
xem_ xét</w> 434402
tho ả_thuận</w> 434333
r ời</w> 433774
n_th iết</w> 433698
hì nh_thức</w> 433306
H ương</w> 433090
sẵ n_sàng</w> 433050
t ình</w> 432766
20 0</w> 432234
Ấn_ Độ</w> 432022
mà_ còn</w> 431962
Cu p</w> 431866
ộ n</w> 431502
kh ắc_ 431325
nă m_ 431315
lư u</w> 431098
có_ mặt</w> 431073
kết_ hợp</w> 430669
Th ế_ 430525
ắ ng_ 430398
truyề n_ 430321
V ĩnh_ 430046
m ừng</w> 429918
điều_ chỉnh</w> 429676
c ấm</w> 429317
Ch ính</w> 429113
I S</w> 428991
g à</w> 428747
l iền</w> 428735
mạ nh_m 428688
B ệnh_ 428536
ấ n_tượng</w> 428453
hoạ t</w> 428398
r ượ 427964
ch ở</w> 427267
gi ấy</w> 427019
v iệ 426819
h ết_ 426777
thanh_ niên</w> 426570
Th ời_ 426429
s iêu</w> 426386
u n</w> 426291
M al 426090
201 1</w> 425975
19 7 425394
l ắm</w> 424708
uộ t</w> 424676
nguy_h iểm</w> 424578
ỳ nh_ 424546
mạnh_m ẽ</w> 424376
kh ối</w> 424002
giáo_ viên</w> 423859
C ùng</w> 423781
_l iệu</w> 423406
k ẻ</w> 423212
b è</w> 422845
đề_ xuất</w> 422261
ế _t 422254
TTX VN</w> 422226
aceb ook</w> 422205
đ ặ 421957
ph óng_ 421827
nghệ _sĩ</w> 421629
ng ăn_ 421202
gi ó</w> 421139
P a 421115
Th ế</w> 420742
s ai_ 420445
t ấm</w> 420444
s on</w> 420309
B ạn</w> 420169
s ắp</w> 419726
Ng ân_ 419546
s ong</w> 419435
l ệnh</w> 419107
C ảnh_ 418754
đị a</w> 418729
đơn_ giản</w> 418690
2 4</w> 418336
h ải_ 418236
cơ_ quan_ 417810
s ắt</w> 417808
ấ t_th 417723
il i 417654
á ng_ 417631
m àn_ 417541
uy ền_ 417101
m i 416902
ư u_t 416807
cầ n_thiết</w> 416767
V inh</w> 416286
ké o</w> 416274
ay_ m 415748
H Đ 415742
ngo ại</w> 415350
cố_ gắng</w> 415347
đ ọc</w> 415295
t ồ 414829
mong_ muốn</w> 414820
_t ế</w> 414756
xe_ máy</w> 414671
đ ỡ</w> 413478
Tr ang</w> 413116
Th u_ 412960
é t_ 412840
ph ó</w> 412833
ì _thế</w> 412805
SE A 412770
mô _t 412648
Ho a_hậu</w> 412642
Tr ưởng</w> 412353
thị _tr 412046
_th ương</w> 411729
v ào_ 411346
sân_ bay</w> 410735
k ỷ_l 410108
vũ_kh í</w> 410056
T C</w> 409817
s óng</w> 409771
b ầu</w> 409692
B í_thư</w> 409602
ch ắc_chắn</w> 409552
chiế n_lược</w> 409285
ph a</w> 408749
T V</w> 408253
6 / 408070
đầy_ đủ</w> 407969
Đ ồ 407206
c uốn</w> 407176
ư_d ân</w> 407005
tình_ cảm</w> 406890
Đ oàn</w> 406609
bị_ cáo</w> 406270
T V 405807
Nh a</w> 405721
b ia</w> 405706
b ị 405448
iễ n</w> 405233
vô_ địch</w> 405209
Ng oài</w> 405096
ng ắn</w> 404982
H ồ</w> 404921
chú t</w> 404658
ch ặn</w> 404583
5 %</w> 404469
bình_th ường</w> 404010
G òn</w> 403894
S ài_ 403781
V N 403598
è n</w> 403524
ph ân_t 403064
điều_ hành</w> 402982
id ae</w> 402811
độ t_ 401984
hướng_ dẫn</w> 401849
l y 401599
t ươ 401523
s uy_ 401402
dễ _d 401288
in es</w> 401215
l ẫn</w> 401195
đại_ biểu</w> 401155
bảo_ đảm</w> 401004
2 / 400885
i_t uyển</w> 400875
b ồ 400839
k ết_thúc</w> 400783
nh ẹ</w> 400474
th ay</w> 400174
Hiệ p_ 400123
t ạ 400079
ơn_ nữa</w> 399951
s ai</w> 399802
h ề</w> 399380
r õ_r 399149
2 2</w> 398791
ph iên_bản</w> 398635
chiế n_đ 398603
m ềm</w> 398541
2 7 398540
m ar 398257
8 / 398229
c ăn</w> 398121
Đ ình_ 397963
x ấu</w> 397601
k ê</w> 397253
M ặc_dù</w> 397234
cổ_ phiếu</w> 397088
ư a_ 396895
Tr ường_ 396888
nhà _th 396788
u_t ố</w> 396742
c à_ 396374
xuất_ sắc</w> 396279
th ử 396179
CL B</w> 396070
h ạ</w> 396068
I r 396023
tr ời</w> 395876
thể _thao</w> 395807
độ i_ 395506
201 3</w> 395214
ơ m</w> 395104
V iện</w> 394929
d ẫn_ 394726
ế t_t 394700
L ong_ 394523
cầ m</w> 394453
C am 393741
qu à</w> 392923
t ầng</w> 392747
k ính</w> 392722
Đ ối_ 392719
201 2</w> 391843
n_th ương</w> 391347
b ãi</w> 391097
đ ợt</w> 390844
H ưng</w> 390713
iệ u_ 390547
nh iệt_ 390488
B áo</w> 390380
g ắn</w> 390194
ầ u_h 390074
duy _trì</w> 390038
Sài_ Gòn</w> 389584
_l ẽ</w> 389437
ây_ giờ</w> 389386
í t_ 389180
m 2</w> 389104
phương_ án</w> 389054
n ửa</w> 388753
r u 388415
ngân_ sách</w> 388358
iế m</w> 388180
thương_ hiệu</w> 387962
D o 387727
ương_t ự</w> 387340
ạ nh_tr 387245
W or 387142
ngh i</w> 386667
dễ_d àng</w> 386628
m ái</w> 386467
ầu_h ết</w> 386106
k ỷ</w> 385741
o_d õi</w> 385496
ạnh_tr anh</w> 385324
P V</w> 385098
c_ làm</w> 384903
A nh_ 384798
ma _tu 384389
tác_ phẩm</w> 384365
ma_tu ý</w> 384324
n ắm</w> 384173
d a 384049
_ B 383925
th úc_ 383615
ư_l uận</w> 383542
C N 383487
M e 383442
TP HCM</w> 383269
thà nh_t 383246
dự a</w> 383184
Gi a_ 382871
D o_ 382819
giám_ đốc</w> 382729
nh ắc</w> 382485
n_l ực</w> 382340
yế u_tố</w> 382330
ti n_ 382175
_v ong</w> 381700
uy ến</w> 381670
mụ c_ 381634
Y _tế</w> 381146
đối_th ủ</w> 380671
ph án</w> 380290
l ạ</w> 379926
truyền_th ông</w> 379832
tử _vong</w> 379791
Dự_ án</w> 379647
T T</w> 379633
i Phone</w> 379292
chấp_ nhận</w> 379277
b í_ 379062
L ý_ 378713
Ph úc</w> 378495
t ư 378219
thu_ nhập</w> 378013
l ậ 377980
ù i_ 377858
an k</w> 377667
b ậ 377561
khủng_ bố</w> 377428
mô _hình</w> 376968
thu ậ 376940
iê m_ 376800
v ững</w> 376588
hàng_ hoá</w> 376364
Hu ế</w> 376268
C ụ_thể</w> 376256
cơ_quan_ chức_năng</w> 375498
đ e 375464
Qu ang</w> 375111
k ỷ_ 374980
Th ủ_ 374956
the o_dõi</w> 374807
ỉ nh_ 374736
ạn_ bè</w> 374709
tuy ển</w> 374691
đ ợi</w> 374663
A T 374461
T ập_ 374424
hạ t_ 374248
C á 374194
hà i_ 374124
or e</w> 373849
c ơn</w> 373808
Bệnh_ viện</w> 373751
minh_ hoạ</w> 373725
mục_ đích</w> 373675
danh_ sách</w> 373609
0 , 373460
x i 373458
p u 373404
l ối</w> 373308
l ạnh</w> 373101
ôi_ sao</w> 373081
d ữ 372878
b àn_ 372786
l ái</w> 372489
l ợi</w> 372398
li p</w> 372309
_ m 372081
ng àn</w> 372075
C ơ_ 372040
đóng_ góp</w> 371806
s úng</w> 371717
nhà_ máy</w> 371552
đ a 371399
ừ ng_ 371064
t ờ</w> 370726
th ôn</w> 370514
nộ p</w> 370433
tiêu_ dùng</w> 370379
h âm_ 369918
M ỗi</w> 369760
thực_ vật</w> 369703
Ch ị</w> 368980
C S 368902
r au</w> 368687
c_t ập</w> 368678
nông_ nghiệp</w> 368653
tiế p_th 368038
tr ao_đổi</w> 368024
Ph ong</w> 367919
hôm_ nay</w> 367278
c ạnh_tranh</w> 367069
r o</w> 367000
tự _t 366813
sự_ nghiệp</w> 366444
ạ t_ 366133
nhân_ vật</w> 366130
giú p_ 366119
ng ữ</w> 366116
ng ầm</w> 365984
Qu ân_ 365968
vận_ động</w> 365945
B á 365919
h ấp_ 365699
Th ắng</w> 365194
Nh ật</w> 365069
Ho a</w> 364725
n ét</w> 364469
l ỗi</w> 364247
D o</w> 364009
ban_ hành</w> 363868
s ho 363438
tác_ động</w> 363388
Ukra ine</w> 363272
tự _nhiên</w> 363249
it y</w> 362682
n_tr ọng</w> 362360
việ c_làm</w> 362275
S ự</w> 362196
v ideo</w> 362088
h ơi</w> 362062
_nh ất</w> 362014
l d_ 361860
b ố 361776
ch ắc</w> 361591
k ích</w> 361014
mô_t ả</w> 360955
ph ổ_ 360920
f or 360876
kết_ nối</w> 360852
thúc_ đẩy</w> 360833
à ng_ 360781
th ừa_ 360667
t ội_ 360374
t iểu_ 360232
ng_th ức</w> 359875
c ựu</w> 359847
thiệt_ hại</w> 359806
b ạn_bè</w> 359604
hấp_ dẫn</w> 359582
2 9 359375
n_tr anh</w> 359252
d ưỡng</w> 359160
_t ầng</w> 358847
ệ n_ 358693
ụ t</w> 358441
hàng_ đầu</w> 358422
th ị_ 358391
d ư_luận</w> 358115
_h ệ</w> 358109
n àng</w> 357962
c ân_ 357764
. v 357703
a ng 357167
a s</w> 357142
kh ai_ 356762
kh ổ</w> 356588
ũ i</w> 356493
c am_ 356331
Một_ số</w> 356309
ban_ đầu</w> 356258
cửa_ hàng</w> 355998
M ai</w> 355825
S e 355742
Tr ương_ 355740
nh_th ành</w> 355733
chế_ độ</w> 355414
d ây</w> 355155
hâm_ mộ</w> 355129
t y</w> 354949
không_ gian</w> 354289
b ào</w> 354086
bất_ cứ</w> 354056
Nguy ên_ 354026
ê n_tr 353671
ch àng</w> 353452
s ữa</w> 353355
quy ề 353350
ả m_ 353301
Cảnh_ sát</w> 353225
duy _nhất</w> 353200
C ao_ 353141
Kh ánh_ 352923
th ua</w> 352881
0 - 352703
s ia</w> 352689
bá nh</w> 352556
năng_ lực</w> 352493
tho át</w> 352346
A pp 352184
thi_ công</w> 352080
c e 351797
Đối_ với</w> 351795
phân_t ích</w> 351739
ể _ 351542
tr ụ 351330
X H</w> 350991
iế u_ 350757
ay_m ắn</w> 350614
tr anh</w> 350496
iệ p</w> 350446
tr anh_ 350156
o ạ</w> 349799
ng_ cấp</w> 349698
màn_ hình</w> 349684
C ar 349627
đ ấ 349582
ngh ĩ 349498
Hội_ nghị</w> 349363
F acebook</w> 349208
ễ _hội</w> 348888
nhận_ định</w> 348559
k èm</w> 348281
gi a_t 348199
3 00</w> 347721
thị_tr ấn</w> 347595
Ngân_ hàng</w> 347439
d áng</w> 347431
M ai_ 347362
th ử</w> 347032
n_đ ổi</w> 346999
tr ạm</w> 346881
h út</w> 346843
v ườn</w> 346723
ung_th ư</w> 345998
ho àng</w> 345983
l iệt</w> 345849
b ầu_ 345049
sáng_t ạo</w> 345029
r an 344841
ã ng</w> 344799
p_th ời</w> 344609
Bình_ Dương</w> 344441
th ân</w> 344269
l ũ</w> 344182
d ấu_h 344107
cầ u_ 344046
Hoà _ 344046
ch ữ</w> 343910
Tập_ đoàn</w> 343822
rượ u</w> 343799
kh ấu</w> 343758
chiến_đ ấu</w> 343716
cơ_ bản</w> 343481
C ộng_ 343363
thế _hệ</w> 342668
chủ_ động</w> 342530
V ụ</w> 342384
n ỗi</w> 342357
biên_ giới</w> 342085
u_ đ 341735
b ày</w> 341330
trước_ đây</w> 340988
ch i_tiết</w> 340621
_ Đ 340606
khắc_ phục</w> 340568
am a</w> 340341
n es 340277
a z 340002
v ỡ</w> 339787
V ào</w> 339543
Ngh ệ_ 339389
G D 339086
lợi_ ích</w> 339079
4 5</w> 338784
rõ_r àng</w> 338776
ch ậm</w> 338598
en t 338337
m ê</w> 338210
D ương_ 338138
o n_ 337964
_L e 337925
Đ ịnh</w> 337916
âm_ nhạc</w> 337894
x ét_ 337840
tình_ yêu</w> 337745
bậ c</w> 337714
w e 337531
g ỡ</w> 337504
Kh u</w> 337379
tiết_ lộ</w> 336989
i_th iện</w> 336914
tiêu_ chuẩn</w> 336706
B H 336466
xung_ quanh</w> 336436
phổ_ biến</w> 336062
kị p_thời</w> 335974
g ỗ</w> 335880
kh iển</w> 335828
kh í 335823
I s 335439
1 /201 335425
Ch âu_ 335247
t ỷ_ 335229
S N</w> 334812
Thanh_ Hoá</w> 334731
l ắng</w> 334495
bo m</w> 334427
n a</w> 334384
7 0</w> 334047
3 5</w> 334005
cảnh_ báo</w> 333947
khá m</w> 333945
n_s ĩ</w> 333928
co m 333859
ướ p</w> 332906
ch a</w> 332670
má y_t 332641
G T</w> 332587
họ c_tập</w> 332171
vệ _sinh</w> 331590
App le</w> 331486
ph ê</w> 331474
đo ạt</w> 331399
c ao_t 331366
3 , 330661
x ây</w> 330450
Đ ồng</w> 330260
H ữu_ 330214
y_t ỏ</w> 330107
B ra 330052
nổ i_ 329999
x ứ</w> 329974
m ã</w> 329947
ph ụ</w> 329830
ậ u_ 329688
E m</w> 329557
S t 329338
K ết_ 329289
h iểm</w> 329268
quan_ điểm</w> 329254
dấu_h iệu</w> 329060
ẳ n</w> 329055
ố_ mẹ</w> 328888
í n</w> 328300
cả i_thiện</w> 328294
g ấp</w> 328285
b ỏ_ 328267
v a</w> 327805
sự_ việc</w> 327648
kh ảo</w> 327556
ông_th ôn</w> 327291
gi àu</w> 327130
ý_ nghĩa</w> 326724
năng_ lượng</w> 326657
t ại_ 326574
N ó</w> 326567
căn_ hộ</w> 326454
e ra</w> 326270
t óc</w> 326159
il l 326133
giả i_tr 326115
6 - 326048
Đồ ng_thời</w> 325808
chiế u</w> 325722
đ uổi</w> 325348
khu ôn_ 325201
thầ y</w> 325115
Nghệ_ An</w> 324968
t e</w> 324869
s ơ 324786
Hội_ đồng</w> 324671
quy_ mô</w> 324596
ch ú</w> 324525
cam_ kết</w> 324386
đ i_ 324339
Phá t_ 324255
s àn</w> 324110
i_tr ang</w> 323703
L úc</w> 323663
ng ôi_sao</w> 323592
bà y_tỏ</w> 323577
ấ n_l 323517
qu ên</w> 323105
_ G 323071
kh ắp</w> 322942
V in 322728
l âu_ 322650
c ây_ 322459
u m</w> 322376
phóng_ viên</w> 322139
u_h ướng</w> 322133
hy_ vọng</w> 322039
6 , 321958
C ách</w> 321928
ạ y_ 321818
đồng_ ý</w> 321724
ời_ sống</w> 321715
mạ c</w> 321686
3 - 321607
Ph ili 321596
di_ chuyển</w> 321590
k o 321576
ằ ng_ 321504
_d oạ</w> 321301
kh ắc</w> 320766
b ăng</w> 320427
s en 319969
é m</w> 319903
động_ viên</w> 319811
sá ng_ 319674
X ây_dựng</w> 319247
ạ nh_ 319176
Ch i_ 319140
cổ_ phần</w> 319095
a_đ ời</w> 319028
lu ật_ 318896
b iể 318885
ù m</w> 318862
ti n_t 318635
ay _thế</w> 318593
c ực_ 318464
Hoà ng</w> 318447
nh ật</w> 318352
tiếp_ cận</w> 318296
An d 317683
m iễn_ 317606
V ì_vậy</w> 317437
Y ên</w> 317419
ngh i_ 317117
điều_ khiển</w> 317112
ca_ khúc</w> 317002
t ái</w> 316991
thế_ nào</w> 316899
toàn_ cầu</w> 316876
sự_ cố</w> 316728
B ùi_ 316664
ưở ng_ 316662
c ập</w> 316023
b ữa</w> 315806
tồ n_tại</w> 315751
Ngo ại_ 315435
bá n_ 315372
bị _thương</w> 315331
Xu ân</w> 315267
S áng</w> 315136
B o 315134
phong_ cách</w> 314836
tr ải</w> 314543
h ẳn</w> 314535
th ay_thế</w> 314479
nh uận</w> 314459
t ội</w> 314360
châu_ Á</w> 314197
đe _doạ</w> 314183
động_ sản</w> 314178
s h 314153
th iên_ 314128
ạ _ 313938
tuy ển_ 313682
trung_ bình</w> 313662
đ ảng</w> 313655
Ng ọc</w> 313646
khá ch_s 313617
A F 313229
ứ _ 313148
xe _t 312939
ứ c_t 312870
khách_s ạn</w> 312711
Th ổ_ 312700
S am 312410
k iệm</w> 312221
ị nh_ 312196
đo án</w> 312175
Ng ườ 311800
độ i_tuyển</w> 311627
cảm_ giác</w> 311570
hàng_ loạt</w> 311362
C ường</w> 311358
al ia</w> 311256
Ng ô_ 310975
phản_ ánh</w> 310956
ă ng_t 310893
T iế 310813
chung_ kết</w> 310740
m ay_mắn</w> 310193
qu ỹ</w> 310101
ặ t_tr 309878
thừa_ nhận</w> 309867
New _ 309699
Nh ĩ_ 309580
gh ế</w> 309472
tối_ đa</w> 309307
Cơ_ quan</w> 309107
T . 309100
r ác</w> 309085
tr ị_ 308882
xác_ nhận</w> 308698
8 0</w> 308426
kỷ_ niệm</w> 308263
Tài_ chính</w> 308218
t ương_tự</w> 308159
ó c_ 308032
a_ mẹ</w> 307805
ph ê 307312
phát_ biểu</w> 306756
C on</w> 306734
ng ừng</w> 306691
â m_th 306547
gia_t ăng</w> 306509
_t ính</w> 306451
b ối_ 305955
ng on</w> 305942
ổi_ mới</w> 305935
qu ần_ 305909
m e 305905
Qu a</w> 305781
n ông_thôn</w> 305621
V ân</w> 305519
thờ i_trang</w> 305132
Quốc_ gia</w> 305023
ì m</w> 304538
iệ ng</w> 304484
h è</w> 304437
như _th 304131
Đ ạ 304033
se a</w> 304015
_ P 303957
vận_ chuyển</w> 303603
uy ết</w> 303481
l ạc</w> 303436
kho án</w> 303348
Hải_ Phòng</w> 303285
m ơ</w> 303191
ợ _ 303146
căn_ cứ</w> 302544
ghi_ nhận</w> 302376
ậ t_t 302346
thống_ nhất</w> 302174
_ nghiệm</w> 302069
3 . 302008
M an 301807
b ây_giờ</w> 301779
tr ò 301736
Inter net</w> 301648
đá m</w> 301399
c ứng</w> 301360
5 0 301248
đối_t ác</w> 301182
truyền_ hình</w> 301147
p_t ức</w> 300899
th ân_ 300876
khá m_ 300860
gi à</w> 300777
tự _do</w> 300721
i_th ường</w> 300699
a h 300535
Ir an</w> 300438
b à_ 300186
am e</w> 299790
chính_ xác</w> 299665
hiệ n_trường</w> 299496
quảng_ cáo</w> 299482
a nh_th 299242
C ả</w> 299209
S ing 299155
dân_ số</w> 299097
ch ặt</w> 299054
thông_ minh</w> 299026
_Le ague</w> 299004
tr ú</w> 298968
TH PT</w> 298915
Ph i</w> 298889
n_th ông</w> 298843
con_ số</w> 298839
hạt_ nhân</w> 298575
s ĩ</w> 298338
b ò</w> 298019
M . 297973
đá o</w> 297616
ng ang</w> 297546
t ung</w> 297518
ng ũ</w> 296918
sân_ khấu</w> 296831
Th iên_ 296813
à m</w> 296806
tiết_ kiệm</w> 296563
u ter 296505
d ục</w> 296490
máy_t ính</w> 296450
Thổ_ Nhĩ_ 296360
4 . 296225
công_ khai</w> 296188
bu ồn</w> 296144
thu_h ồi</w> 296048
hoàn_th iện</w> 295666
Wor ld_ 295571
Mal ay 295411
c e</w> 295385
B a</w> 295334
tìm_ hiểu</w> 295320
ít_ nhất</w> 295219
C an 294682
thuậ n_lợi</w> 294655
Thành_ phố</w> 294381
H ar 294303
c ân</w> 294266
ó i_ 294177
Ch el 294073
phát_ hành</w> 293820
ế_ nào</w> 293816
Thổ_Nhĩ_ Kỳ</w> 293494
L âm</w> 293470
c o</w> 293430
l an</w> 293206
ầ y</w> 293165
ng ã</w> 293088
H àng</w> 292776
nh iệm</w> 292744
200 8</w> 292666
cơ m</w> 292663
gó i</w> 292556
lậ p_tức</w> 292280
b ố_mẹ</w> 292255
công_ nhân</w> 292235
x ưa</w> 292209
hạ t</w> 291756
Phili pp 291723
ph ân</w> 291687
e t</w> 291625
m ã 291623
trang_ phục</w> 291622
t ổ</w> 291529
đ ương</w> 291414
p o 291405
a w 291257
gi ọng</w> 291226
m a</w> 291082
iê u_t 290945
x ế</w> 290917
Malay sia</w> 290809
tuy _nhiên</w> 290790
es s 290781
như_th ế_nào</w> 290489
b ụng</w> 290344
t ay_ 290311
h ầu_hết</w> 290307
điệ n_ 290198
Th uận</w> 290140
kê u_ 290094
i n_ 289848
vậ n_tải</w> 289655
ỗ _ 289618
bất_ kỳ</w> 289348
trị_ giá</w> 289311
t ỏ</w> 289160
ầ u_t 289007
ă ng_th 288295
tư_ vấn</w> 288214
không_ khí</w> 288203
ph ối</w> 287897
ên_tr uyền</w> 287671
V õ 287442
ph ú</w> 287327
trọ ng_t 287290
D i 287001
x inh_ 286936
thủ_ đô</w> 286703
Nh ư</w> 286598
c ấ 286421
s âu_ 286372
Đ ầu_t 286285
tiề m_ 286120
Th ông_tin</w> 286021
thành_t ích</w> 285964
n o 285901
_h ậu</w> 285841
lợi_ nhuận</w> 285818
H H</w> 285596
hu y</w> 285356
ã m</w> 285278
l ên_ 285176
hết_ sức</w> 285100
kê nh</w> 284885
biể u_t 284732
d e 284713
t an</w> 284371
nh_tr ình</w> 284359
Chel sea</w> 284167
d e</w> 283901
kh ô</w> 283556
ương_ mặt</w> 283446
Hoa_ Kỳ</w> 283384
m ãi</w> 283320
c lip</w> 283309
m ay</w> 283265
ng_th ái</w> 283144
l ịch</w> 283088
n am_ 282697
phương_ pháp</w> 282655
_ động</w> 282616
đ ặc_ 282531
hu ấn_l 282495
lo ạn</w> 282443
m àn</w> 282371
tội_ phạm</w> 282241
Th ái</w> 282006
b ức_ 281879
E U</w> 281856
hội_ nghị</w> 281714
chuyên_ môn</w> 281548
Th ơ</w> 281376
n ắng</w> 281190
t inh_ 281084
chiến_ dịch</w> 280994
hành_ khách</w> 280581
b iến_ 280354
ch ạm</w> 280323
r ẻ</w> 280317
ph i_ 280246
i_ suất</w> 280156
cà_ phê</w> 280106
Tu ấn_ 280011
bối_ cảnh</w> 279936
trọ ng_ 279933
nguy ện</w> 279924
m_ phán</w> 279868
đ ổi_mới</w> 279855
ế p_ 279831
A SEA 279782
t iến</w> 279770
giúp_ đỡ</w> 279714
T e 279562
ch _hợp</w> 279556
kêu_ gọi</w> 279383
m iệng</w> 279268
a ti 279213
b ền_ 279177
bất_ động_sản</w> 279161
Sing ap 279033
gi ết</w> 278999
G TV 278865
đ ời_sống</w> 278802
lo_ lắng</w> 278701
ngo ái</w> 278686
k inh</w> 278405
i k 278304
ú p</w> 278282
iêu_t ả</w> 278128
cá ch_ 278038
cả ng</w> 277998
nông_ dân</w> 277970
anh_th u</w> 277764
T ĩnh</w> 277739
uy ệt</w> 277630
e z</w> 277619
cơ _chế</w> 277324
mạ ch</w> 276888
_tr ang</w> 276834
ự _th 276741
Singap ore</w> 276670
é n</w> 276650
c ú</w> 276614
lo ại_ 276590
đ ai</w> 276585
thu ỷ 276146
cả i_t 276115
ăng_th ẳng</w> 276059
H iện_ 275962
f f 275920
kí ch_th 275886
m iêu_tả</w> 275840
_ án</w> 275748
đà m_phán</w> 275632
tương_ đương</w> 275504
d ám</w> 275502
GTV T</w> 275407
dữ _liệu</w> 275398
h uống</w> 275248
5 - 275101
In do 274899
th ú_ 274857
B ộ_ 274808
Thu ỷ</w> 274661
nh iễm</w> 274426
đ ỉnh</w> 274424
Tổ _chức</w> 274362
D ân_ 274314
kh ảo_ 273960
L âm_ 273907
kết_ luận</w> 273901
tiê u_th 273757
quan_ chức</w> 273622
ạ i_tr 273605
uy nh</w> 273578
động_ cơ</w> 273559
áp_ lực</w> 273480
ộ c_ 273468
v ua</w> 273428
x âm_ 273329
k ỳ 273115
h ơn_nữa</w> 273086
bắt_ giữ</w> 272915
cao_ cấp</w> 272835
ch ảy</w> 272800
n on</w> 272690
T ùng</w> 272663
ườ ng_tr 272654
ng - 272603
nh iêu</w> 272223
như _thế</w> 272050
Ch ương_trình</w> 271954
kh ích</w> 271856
gi ỏi</w> 271852
Không_ chỉ</w> 271783
đẩ y_ 271581
tuy ên_truyền</w> 271385
ướ c_t 271383
Ar sen 271232
đ ập</w> 271225
ợ i_ 271109
Tây_ Ban_ 271050
ặ p_ 271048
19 6 270823
1 .000</w> 270763
Qu ản_lý</w> 270630
t ô</w> 270599
_tr ương</w> 270540
Tây_Ban_ Nha</w> 270469
2 7</w> 269902
chế_ biến</w> 269896
ASEA N</w> 269870
b ắc</w> 269822
Philipp ines</w> 269805
kiế n_ 269702
c ấu</w> 269680
tra ng_tr 269585
G oo 269520
nghĩ a_ 269260
địa_ điểm</w> 269085
gó c</w> 269021
C uộc</w> 269019
tha nh_toán</w> 269010
í _d 268751
x u_hướng</w> 268621
TN HH</w> 268621
l ạc_ 268321
ữ ng_ 268298
P e 268000
ar d</w> 267991
4 , 267755
2 6</w> 267216
Đ - 267212
huy _động</w> 267050
x óm</w> 267030
Lo an</w> 266968
nh ậ 266723
V ũ</w> 266610
tiếp_th eo</w> 266520
Quốc_ phòng</w> 266454
tiêu_th ụ</w> 266450
c an 266421
Th ương</w> 266237
P o 266217
tha nh_tra</w> 266127
2 8</w> 266093
lã i_suất</w> 266063
ấ t_t 265939
A N 265934
ch ùa</w> 265833
u_th ương</w> 265613
kiến_ nghị</w> 265310
th ẻ</w> 265309
hợp_ lý</w> 265074
khó c</w> 265008
20 20</w> 264953
ng ập</w> 264944
tâm_ lý</w> 264905
el l 264820
thất_ bại</w> 264812
Gi á</w> 264785
đồ ng_t 264720
t ỉ 264560
ật_t ự</w> 264228
phát_ huy</w> 264139
ch ứ 264122
L a_ 263747
Do_ đó</w> 263578
g an</w> 263558
T iền_ 263461
chiế n_tranh</w> 263404
Tổng_ cục</w> 263390
C ần_ 263259
đ ừng</w> 263205
c a 263065
Y ên_ 262804
er _ 262625
/201 7</w> 262324
S p 262234
Thời_ gian</w> 262187
nes ia</w> 261917
l ao</w> 261858
R i 261801
đ ào</w> 261643
ý t</w> 261641
tác_ dụng</w> 261495
ẫ u_th 261470
nh o</w> 261446
th uy 261439
e d</w> 261274
v ô 261262
Th ứ 261223
ch ẽ</w> 261146
giải_tr í</w> 261081
ch ặt_ 260992
Hiện_ nay</w> 260943
đ ạn</w> 260692
chặt_ chẽ</w> 260485
_h uynh</w> 260423
g ạo</w> 260351
á n_ 260287
Nghị_ định</w> 260265
tr ật_tự</w> 260133
sinh_ hoạt</w> 260088
c ăng_thẳng</w> 260016
chuy ên</w> 259759
Indo nesia</w> 259745
Quy ết_định</w> 259536
i d</w> 259455
phản_ ứng</w> 259411
ưỡ ng_ 259334
nổi_ bật</w> 259240
B a_ 259226
i_th ân</w> 259108
ủ ng</w> 259064
quy ết_t 259059
x ếp_ 259016
đ ấy</w> 258950
iể n_l 258875
qu ản</w> 258663
đ èn</w> 258590
m ùi</w> 258407
9 0</w> 258369
đố t</w> 258359
ẫu_th uật</w> 258131
tình_ huống</w> 258099
bầu_ cử</w> 258072
do anh_thu</w> 257973
biểu_ diễn</w> 257766
4 - 257758
ụ i</w> 257583
Nh ư_vậy</w> 257570
J u 257389
ph ức_t 257209
liên_t iếp</w> 257111
chuyên_ nghiệp</w> 256969
iển_l ãm</w> 256965
tổng_ số</w> 256888
4 00</w> 256794
m ực</w> 256726
2 9</w> 256636
World_ Cup</w> 256400
phức_t ạp</w> 256322
ph one</w> 256175
m àu_ 256136
th ảo_ 256037
tậ n_ 255993
m ức_ 255978
thử _nghiệm</w> 255784
giải_th ưởng</w> 255762
chung_ cư</w> 255332
Đ V</w> 255236
Có _thể</w> 255044
_s ản</w> 254971
F or 254778
ái_ xe</w> 254703
v ỏ</w> 254676
_d uyệt</w> 254615
đạo_ diễn</w> 254478
O b 254337
K inh</w> 254331
x i</w> 254174
tr ông</w> 253552
Thu ỵ 253153
kh ổ 253077
b ốn</w> 252926
ph ong</w> 252872
T âm</w> 252860
/ 11</w> 252844
kh o</w> 252743
tổng_ hợp</w> 252687
đ oàn_ 252643
G u 252613
Th ương_ 252587
B u 252560
trình_ diễn</w> 252515
m ai</w> 252433
l úa</w> 252121
C N</w> 252110
L à</w> 251821
ac k 251766
ẫ y</w> 251756
chứng_ kiến</w> 251651
c ung</w> 251570
ki m_ 251508
y o 251326
Ch i 251291
có _lẽ</w> 251251
M an_ 251244
í_d ụ</w> 251225
kho e</w> 251135
m ới_đây</w> 251095
a u 250993
r ửa</w> 250899
Đ ặng_ 250847
D uy_ 250806
phê _duyệt</w> 250748
th ai</w> 250742
Thứ _trưởng</w> 250594
R onal 250450
Đ inh_ 250319
đ ài</w> 250195
B iển</w> 250173
bức_ xúc</w> 250126
ng ược</w> 250092
g ương_mặt</w> 250015
k ịch</w> 249749
5 , 249609
đá ng_ 249541
_h uy</w> 249364
ngăn_ chặn</w> 249336
g le</w> 248966
Hà_ Tĩnh</w> 248804
m o 248705
đồng_ chí</w> 248703
H ồng</w> 248691
giải_th ích</w> 248607
kiế n_thức</w> 248359
B áo_ 248318
C T 248244
tự_t in</w> 248225
Ch iều</w> 248149
Re uter 248110
kị p</w> 247978
T iến_ 247727
A b 247724
Đ à 247633
á i_t 247511
/ 10</w> 247451
bền_ vững</w> 247445
Kh ánh</w> 247424
c ướp</w> 247267
ường_ như</w> 247244
tài_ khoản</w> 247090
s ứ</w> 247032
t ù</w> 246987
c an</w> 246975
N inh_ 246933
ri d</w> 246692
_ch ối</w> 246430
ạ c_sĩ</w> 246317
ch ủ_tịch</w> 246244
k ý_ 246110
ng_tr ào</w> 245879
bộ_ phận</w> 245844
Viet nam</w> 245824
Th ảo</w> 245764
tr ộ 245593
ò i_ 245533
H ằng</w> 245370
qu ả 245363
hà nh_trình</w> 245329
ăng_t ải</w> 245246
b ếp</w> 245052
H ình_ 245044
ph ẫu_thuật</w> 245029
n_đ ộ</w> 245000
k ỳ_ 244710
cấp_ cứu</w> 244678
phạ m_ 244605
Hiệ n_tại</w> 244434
l ái_xe</w> 244317
cả i_ 244317
l ễ_hội</w> 244252
phụ _huynh</w> 244146
Goo gle</w> 244132
Đ ội</w> 244033
t ái_ 243982
ù _ 243861
G e 243786
Reuter s</w> 243691
ch ị_ 243666
L ào</w> 243502
Th áng</w> 243324
tốt_ nghiệp</w> 243219
từ _chối</w> 243164
đ ông_ 243072
m ong</w> 242953
i m_ 242781
n _thể</w> 242772
đồ n</w> 242637
l ên_t 242542
chuy ể 242270
đ ăng_tải</w> 242187
Hồ i_ 242108
d ấu</w> 242089
Võ _ 242018
ấ y_ 241930
K im</w> 241824
h ữu_ 241789
ad a</w> 241508
M ỹ_ 241495
đ òi</w> 241421
mức_ độ</w> 241349
hậ u_quả</w> 241320
mu a_ 241317
tài_ năng</w> 241214
A le 241174
h ậu</w> 241141
Kết_ quả</w> 241104
ch ó</w> 241076
co n 240926
chủ _trương</w> 240770
g ắn_ 240724
G D</w> 240682
ú ng_ 240559
Giá o_dục</w> 240508
tiếp_ nhận</w> 240342
C ity</w> 240301
n ão</w> 240191
bả o_t 240146
al i 240061
trái_ phép</w> 240013
oà _án</w> 240012
_ch ơi</w> 239856
ng ọt</w> 239854
ch a_mẹ</w> 239489
năm_ ngoái</w> 239453
ách _thức</w> 239432
vận_ hành</w> 239383
trụ _sở</w> 239374
danh_ hiệu</w> 239243
N N</w> 239142
á m_ 239138
v ời</w> 239120
c u 239111
Jo h 239108
b iế 239035
b ột</w> 239021
cuộc_ đời</w> 238748
c k 238725
l y_ 238623
nâ ng_cấp</w> 238601
Nh à</w> 238514
bố _trí</w> 238432
S er 238353
Đầu_t ư</w> 238320
H ãy</w> 238230
Chiế c</w> 238101
ải_ nghiệm</w> 237898
đ àn</w> 237619
Arsen al</w> 237618
ng_th ành</w> 237539
ả y_ 237456
nhà _trường</w> 237426
ưu_t iên</w> 237370
us tr 237330
lên_t iếng</w> 237259
cảm_ xúc</w> 236944
i ng</w> 236861
m ặc_dù</w> 236827
z il</w> 236827
g u 236806
in i</w> 236697
hoà_ bình</w> 236582
Th ậm_chí</w> 236464
V . 236363
l ưới</w> 236307
v ì_vậy</w> 236297
thảo_ luận</w> 236096
bao_ nhiêu</w> 235849
a - 235828
suy_ nghĩ</w> 235787
D e 235611
đẩy_ mạnh</w> 235589
v iêm</w> 235556
cá t</w> 235487
Ph ú</w> 235403
s ố_ 235267
al a 235117
er r 235031
tác_ giả</w> 234968
Hu ỳnh_ 234845
s ung</w> 234802
ngườ i_thân</w> 234700
H y 234618
má t</w> 234566
c ô_ 234384
B ởi</w> 234169
hiệ n_tượng</w> 234161
x a_ 234016
h ương</w> 233940
t ư</w> 233930
hiệ p</w> 233925
ti m</w> 233863
S o 233777
tài_ liệu</w> 233758
b ó</w> 233711
M C</w> 233436
tài_ xế</w> 233180
tr ứng</w> 233058
L ã 233002
nh ượng</w> 232990
ch ào_ 232952
Th ực_ 232940
đối_ mặt</w> 232932
g ame</w> 232875
tập_ đoàn</w> 232716
bà_ con</w> 232573
xinh_ đẹp</w> 232507
uyền_ hình</w> 232465
hì nh_thành</w> 232332
phần_ mềm</w> 232203
m ũi</w> 231871
hạ _tầng</w> 231672
c am 231657
sức_ mạnh</w> 231515
lợ n</w> 231471
ch ế_t 231419
x ăng</w> 231389
/ 7</w> 231358
1 %</w> 231305
giá p</w> 231252
i_tr ợ</w> 231109
th ân_th 230942
th ư</w> 230919
Is ra 230588
l ưng</w> 230356
diễn_ biến</w> 230276
u_ này</w> 230087
th ưởng</w> 229897
chủ_ đề</w> 229869
Ch i</w> 229793
_h ọc</w> 229749
í ch_ 229226
l inh_ 229072
Nghị_ quyết</w> 229070
c ố 228958
Qu ân</w> 228806
r ủ 228755
an a</w> 228743
giả ng_ 228568
T àu</w> 228437
k e</w> 228394
nh iệt</w> 228350
_nh iễm</w> 228233
thú_ vị</w> 228124
v en</w> 227915
_t iêu</w> 227891
kỹ _ 227871
l uyện</w> 227542
Tr ọ 227540
tu s</w> 227466
tình_ dục</w> 227392
c ãi</w> 227322
ì n_ 227256
nguy ên_t 227226
thị_ xã</w> 227173
ứ t_ 227115
inh_ dưỡng</w> 227083
Isra el</w> 227023
ur o</w> 226984
tr ải_nghiệm</w> 226933
nh ũng</w> 226911
th ức_ 226833
d ứt</w> 226803
đ ăng</w> 226752
el _ 226743
kinh_ phí</w> 226572
qu ang</w> 226511
ỏ ng_ 226430
M ới_đây</w> 226358
thuố c_ 226245
đáng_ kể</w> 226139
2 8 226044
T iến</w> 226035
/ 4</w> 225925
Ob ama</w> 225876
hàng_ không</w> 225766
tín_ dụng</w> 225698
V O 225681
B ài</w> 225585
d ậy</w> 225427
T ân</w> 225289
Ronal do</w> 225069
s út</w> 225057
2 %</w> 225051
Cần_ Thơ</w> 225038
Th ọ</w> 225020
en s 224908
kí n</w> 224641
m m</w> 224607
Th a 224579
L Đ</w> 224409
ma r</w> 224390
uộ ng</w> 224203
trự c_th 224067
H .</w> 223965
sẵ n</w> 223957
phản_ đối</w> 223934
tính_ năng</w> 223925
g o 223791
H ương_ 223678
chấ n_thương</w> 223666
ad rid</w> 223448
Hồi_ giáo</w> 223390
d iệt</w> 223256
mar t 223230
o _th 223225
Đ ài_ 223167
mặt_ hàng</w> 223155
N S 223063
ô _nhiễm</w> 223046
/201 8</w> 222692
à_ soát</w> 222674
chiế m_ 222638
6 . 222635
s ở</w> 222462
f an</w> 222324
Quảng_ Ninh</w> 222296
thế_ kỷ</w> 222236
thiế u_ 222210
đ âm</w> 222196
hoàn_ cảnh</w> 222088
Đ ảng_ 222074
lã ng_ 222001
lo_ ngại</w> 221913
đ ẳng</w> 221889
Ngh ĩa</w> 221822
.v n</w> 221707
ph i</w> 221594
tham_ nhũng</w> 221471
A ustr 221433
nhà_ khoa_học</w> 221386
tiền_ đạo</w> 221279
khảo_ sát</w> 221209
n_đ ảo</w> 221072
th ẳng</w> 221065
A s 221053
_ch ất</w> 220898
thờ i_tiết</w> 220857
khá c_ 220850
n ấu</w> 220811
thay_ vì</w> 220747
M ô 220746
thống_ kê</w> 220567
r ộng_ 220495
th i 220442
r uột</w> 220403
quyết_t âm</w> 220327
Văn_ hoá</w> 220303
công_ nhận</w> 220080
xu ân</w> 220047
Văn_ phòng</w> 220044
/201 6</w> 220038
độc_ đáo</w> 219798
S C 219702
I ra 219696
pho ng_trào</w> 219461
V ậy</w> 219392
/ 9</w> 219356
ho ảng</w> 219193
h ứng</w> 219188
l in 219066
Phá t_triển</w> 219035
v ì_thế</w> 218952
L ộc</w> 218650
D a 218623
th ách_thức</w> 218594
tập _thể</w> 218500
it e</w> 218463
ạ ng_ 218407
i_t ích</w> 218406
tiế n_độ</w> 218127
B ả 218026
dự_ báo</w> 217997
to p</w> 217971
V ương_ 217907
dân_ cư</w> 217852
S ong</w> 217800
tuyệt_ vời</w> 217752
b ạo_ 217608
nh ảy</w> 217528
B e 217371
L ưu_ 217100
gi ật</w> 217090
I t 216954
chứng_ minh</w> 216953
7 , 216884
_ phạt</w> 216771
C ty</w> 216543
a_đ ổi</w> 216353
Hoà i_ 216244
t úi</w> 216005
g ặp_ 215887
văn_ phòng</w> 215819
D onal 215804
đ ức</w> 215797
Quảng_ Nam</w> 215707
/ 8</w> 215634
bình_ luận</w> 215520
Ira q</w> 215480
N ai</w> 215455
M os 215429
n ội</w> 215413
tươ i</w> 215315
Th ứ</w> 215300
r es 215193
gi ấu</w> 215159
nh_th ổ</w> 215066
d ường_như</w> 214951
T A 214869
m an</w> 214860
/ 5</w> 214769
a_t ay</w> 214762
thiệt_ mạng</w> 214741
A ir 214699
huy ết</w> 214681
/ 6</w> 214632
c ư_dân</w> 214625
Ngoại_ giao</w> 214569
ường_tr ực</w> 214537
ấ m_ 214471
Ch am 214441
V F 214437
nh ị 214287
T iểu_ 214261
h iến</w> 214258
gi ới_ 214130
chứng_ khoán</w> 214080
R a 213916
U 23</w> 213755
Đ ỗ_ 213712
quy _trình</w> 213697
P u 213653
y ên</w> 213622
ồn_ gốc</w> 213616
đá p</w> 213512
người_ mẫu</w> 213484
thẩm_ quyền</w> 213462
ý _tưởng</w> 213422
thức_ ăn</w> 213390
d ọc</w> 213348
3 2</w> 213299
r à_soát</w> 213203
v ô_t 213197
Ch o</w> 213158
l ine</w> 213086
H ợ 213082
S a</w> 213019
m uối</w> 212893
t ận</w> 212657
hậ u_ 212641
bồ i_thường</w> 212637
kỹ_ năng</w> 212541
s ong_ 212004
mua_ bán</w> 211733
p_ chí</w> 211716
th ông_th 211670
tr úng</w> 211660
là n</w> 211621
công_ dân</w> 211591
quy ết_ 211442
sử a</w> 211415
nh ánh</w> 211223
o à</w> 211210
v ết</w> 211086
W ash 211045
xử _phạt</w> 211028
ng_l ồ</w> 210869
lã nh_thổ</w> 210679
khổ ng_lồ</w> 210561
Q uy_ 210448
ng ôn_ 210394
Sam sung</w> 210328
th ảm_ 210285
đ ỗ</w> 210260
m ưa_ 209984
t or 209831
x ả</w> 209764
nhà_ sản_xuất</w> 209653
_t ín</w> 209538
l ầm</w> 209537
Wash ing 209523
Hu y</w> 209484
m ảnh</w> 209471
sử a_đổi</w> 209341
N ông_ 209266
i_th ảo</w> 209199
h ữu</w> 209142
i_ ro</w> 209037
ụ ng_ 209021
P C 208839
hồ i_ 208731
đội_ ngũ</w> 208693
ược_ lại</w> 208686
giả m_ 208675
Đồng_ Nai</w> 208617
d o_ 208607
tr ốn</w> 208606
sá t_ 208581
C ổ_ 208451
n_tr úc</w> 208448
c ỏ</w> 208353
p er 208300
x ương</w> 208123
đ ó 208050
cầ m_ 207999
kỷ_l ục</w> 207957
di_ động</w> 207878
T .</w> 207795
f t</w> 207684
lu s</w> 207684
tr ình</w> 207460
kh ối_ 207312
h ầm</w> 207297
ổ n</w> 207213
e y</w> 207044
t ường</w> 207032
Đ B 206927
o ả</w> 206881
đạ p</w> 206869
đ ãi</w> 206786
đồ _ 206720
đ iệu</w> 206710
Gi ải</w> 206486
T ất_cả</w> 206401
C A 206319
th ép</w> 206295
cam era</w> 206290
ch _l 206285
uố c</w> 206262
Bắc_ Kinh</w> 206226
Nguyễn_ Xuân_ 206158
m ỏi</w> 206001
u_th u 205831
Cam pu 205821
v ẽ</w> 205787
N G</w> 205760
D u_lịch</w> 205725
l ô</w> 205720
cổ ng</w> 205702
tiền_ vệ</w> 205658
200 7</w> 205656
truy ền</w> 205635
ớ p</w> 205622
S ố</w> 205613
Thủ_ đô</w> 205568
một_ vài</w> 205362
ngu ồn_gốc</w> 205330
độc_ lập</w> 205327
o f</w> 205313
7 - 205288
công_ suất</w> 205262
y _tr 205177
Bra zil</w> 205141
5 . 205106
v áy</w> 205100
iệ t_th 204999
o p 204814
toàn_ quốc</w> 204806
đ ình_ 204766
â ng</w> 204750
cá o_ 204558
ri s 204268
ập_ nhật</w> 204095
hộ p</w> 204026
v e</w> 203806
6 %</w> 203725
màu_ sắc</w> 203681
anh_ em</w> 203603
miễn_ phí</w> 203584
m ưu</w> 203557
th ơ</w> 203526
ải_ mái</w> 203496
N ữ</w> 203476
rủ i_ro</w> 203347
Campu chia</w> 203343
giải_ phóng</w> 203120
h ùng</w> 203085
m ật_ 203018
giấ y_ 202942
v ũ</w> 202887
T ư_ 202805
số t</w> 202686
hình_ sự</w> 202654
_th uộc</w> 202637
tố _ 202611
B ằng</w> 202605
Y or 202390
đồng_ hồ</w> 202374
chứng_ nhận</w> 202247
tho ải_mái</w> 202205
3 %</w> 202086
h iếm</w> 202080
i_th ế</w> 201964
mart phone</w> 201770
A m 201638
D av 201536
a t</w> 201502
cao_t ốc</w> 201497
c ẩ 201405
e n_th 201399
người_ yêu</w> 201311
t ài</w> 201108
mặt_ bằng</w> 201086
ng ụ</w> 201066
do n</w> 201058
chi a_tay</w> 200952
b éo</w> 200931
E C</w> 200856
u_thu ẫn</w> 200732
Th ượng_ 200617
c i 200562
c k</w> 200530
N ói</w> 200468
toàn_ diện</w> 200386
ượ t_ 200218
nhà_ hàng</w> 200122
khá ng_ 200110
liên_ kết</w> 200110
b inh_ 200079
c_tr ò</w> 200074
úc_ nào</w> 199994
gi an_ 199993
Tr inh</w> 199912
kỷ_l uật</w> 199705
th ập_ 199692
Donal d_ 199626
á _ 199520
chu ỗi</w> 199494
quốc_ phòng</w> 199378
7 %</w> 199347
19 5 199320
nh i</w> 199259
h ôn_ 199258
n ặng_ 199150
phần_ lớn</w> 199037
khác_ biệt</w> 199033
tiếp_ xúc</w> 198656
Đ ường</w> 198503
N ội_ 198489
am_ mê</w> 198476
l an 198455
x y</w> 198287
t o_ 198132
Y o 197989
k iên_ 197928
sử a_ 197899
kh ung</w> 197872
h ồng</w> 197840
sinh_ sống</w> 197821
l ắp_ 197700
g ợi_ 197665
b ank</w> 197602
c ỡ</w> 197541
R iêng</w> 197524
chỉ _tiêu</w> 197518
Gi ao_thông</w> 197514
e g 197376
chị_ em</w> 197291
trực_t uyến</w> 197239
Ph ượng</w> 196995
u ỷ_ 196975
ẹ t</w> 196843
đường_ sắt</w> 196743
C on 196719
_ H 196585
đa u_ 196419
xếp_ hạng</w> 196334
bảo_ hiểm</w> 196040
0 0 196012
l ính</w> 195951
òi_ hỏi</w> 195813
ngoại_ giao</w> 195805
pháp_ lý</w> 195675
k ỹ</w> 195646
8 %</w> 195547
ế u_ 195438
_v ẻ</w> 195306
l ỗ</w> 195264
Trọ ng_ 195120
d ao</w> 195115
M ou 195113
chuyển_ nhượng</w> 195104
b ài_ 195032
_tr ích</w> 195013
quần_ áo</w> 194852
ng ôn</w> 194842
họ c_trò</w> 194781
5 .000</w> 194730
xét_ xử</w> 194628
chí n</w> 194567
r ối</w> 194551
3 6</w> 194481
hà i</w> 194402
Tr ịnh_ 194401
ly m 194387
t ô 194358
trình_ độ</w> 194355
sửa_ chữa</w> 194348
tâm_ sự</w> 194299
m ặt_tr 194177
đ òi_hỏi</w> 194133
tu ỳ</w> 194050
gi am</w> 194036
thu ỷ_ 193961
3 1</w> 193949
ệ ch</w> 193941
V ì_thế</w> 193853
d inh_dưỡng</w> 193848
c ập_nhật</w> 193848
th ật_ 193768
ic o</w> 193739
điện_ ảnh</w> 193571
ngo ạ 193557
N H 193476
th ư_ 193447
oo l</w> 193378
Đ ã</w> 193131
te l</w> 193129
nguyên_ liệu</w> 193112
b ộ 193000
đồng_ đội</w> 192872
Tr ước_ 192839
ng ực</w> 192579
chấ m_ 192458
/ 3</w> 192447
Th ường_ 192436
nhiệt_ độ</w> 192431
l úc_nào</w> 192216
H ưng_ 192122
i - 192020
tin_t ưởng</w> 191886
h ư 191815
tiềm_ năng</w> 191675
B er 191663
n ém</w> 191640
s martphone</w> 191429
New s</w> 191373
nhậ n_thức</w> 191125
ự ng</w> 191050
đ ền</w> 190990
tr ưa</w> 190935
e z 190899
a_s ắm</w> 190899
huấn_l uyện</w> 190894
ph ò 190803
n_đ àn</w> 190754
d i_tích</w> 190716
s ót</w> 190673
Hoà n_ 190623
Austr alia</w> 190482
ã _ 190471
Hiệp_ hội</w> 190451
th ơm</w> 190410
th ăm_ 190305
công_ chúng</w> 190288
Re al 190220
bổ _nhiệm</w> 190150
on s 190147
chỉ _trích</w> 190109
anh_ch ấp</w> 190085
chỉ_ số</w> 190040
nghiệ p_ 189985
c ờ</w> 189884
Le ague</w> 189808
Tha nh_tra</w> 189752
Donald_ Trump</w> 189662
M ẹ</w> 189599
khu ẩn</w> 189570
t ai</w> 189522
I V</w> 189521
kh ở 189447
uy _tín</w> 189336
D ân</w> 189244
ụ m</w> 189111
th ương</w> 189062
ư a 188986
nh ân_t 188898
ph ỏng_ 188890
M. U</w> 188816
1 1/ 188748
quan_ sát</w> 188644
O lym 188561
Đ T 188526
tr ưng_ 188257
Phát_ biểu</w> 188154
v o 188151
động_ vật</w> 188089
cơ_ cấu</w> 188017
we b</w> 188011
cáo_ buộc</w> 187997
Quân_ đội</w> 187968
b ớt</w> 187845
6 00</w> 187801
ị t</w> 187643
tham_ quan</w> 187501
r ắn</w> 187438
đ am_mê</w> 187321
tr eo</w> 187315
H iếu</w> 187262
n ướ 187143
ch ữ 187106
t ôn_ 187067
G S</w> 186988
m iếng</w> 186814
F A</w> 186790
New_ Yor 186777
thời_ kỳ</w> 186751
ch ừng</w> 186684
thời_ hạn</w> 186586
ho ang_ 186534
nh iễ 186451
ỳ nh</w> 186416
H A 186307
cuộc_ chiến</w> 186007
D u 185966
T ình_ 185916
mu a_sắm</w> 185796
th ái_ 185624
p in</w> 185519
Qu ỳnh_ 185513
k im</w> 185440
địa_ chỉ</w> 185377
i_t ố</w> 185369
Ch ưa</w> 185302
T im 185268
A ng 185262
Nh ân</w> 185190
ếu_ như</w> 185118
nhiệm_ kỳ</w> 184832
V ăn</w> 184816
ẹ o</w> 184691
r ăng</w> 184595
bí_ mật</w> 184585
nói_ chuyện</w> 184559
T ính</w> 184538
y a</w> 184510
tự_ động</w> 184501
ượ n</w> 184474
đ ổ_ 184341
nh ẹ 184340
b ước_ 184284
L ực_lượng</w> 184280
tr anh_chấp</w> 184253
đ ậm</w> 184154
Hoà_ Bình</w> 184149
s k 184147
U n 184100
khuyến_ khích</w> 184069
. .</w> 184045
_h ào</w> 183796
đ iểm_ 183718
n ữ 183654
ự_th ật</w> 183654
Đ ị 183506
nh é</w> 183504
a i 183443
b ạch</w> 183430
W in 183357
sa u_này</w> 183320
Th u</w> 183267
L a</w> 183201
iê u_th 183164
ăn_ uống</w> 183157
c ar 183027
_tr i</w> 182996
am in</w> 182986
cách_ mạng</w> 182920
ề n_t 182895
Th ể 182859
L ai</w> 182848
lã i</w> 182848
khủng_ hoảng</w> 182629
liên_ lạc</w> 182558
ng ừa</w> 182556
thành_ phần</w> 182427
t ôm</w> 182365
c_th ải</w> 182275
l as 182238
S ự_ 182231
ói_ quen</w> 182201
tiêu_ chí</w> 182198
b ất_th 182183
M .</w> 182095
Ki nh_tế</w> 182075
b ạ 181974
Cham pi 181966
ch im</w> 181927
vật_ liệu</w> 181892
9 , 181855
lưu_ ý</w> 181846
cải_ cách</w> 181840
h ồn</w> 181823
M y 181675
th anh</w> 181667
kết_ hôn</w> 181606
á u</w> 181502
ac e 181449
iế p_ 181289
B iên_ 181270
kỳ_ vọng</w> 181214
4 %</w> 181122
bàn_ giao</w> 181093
s ốc</w> 181068
ắ m_ 181030
bá m</w> 180801
dự _th 180783
Giá o_ 180771
định_ hướng</w> 180738
M ọi</w> 180558
ền_t ảng</w> 180540
thi_ hành</w> 180472
n_đ ồ</w> 180456
ươ n</w> 180414
k m 180239
Washing ton</w> 180204
n_tr ị</w> 180195
r a_đời</w> 180118
N H</w> 180036
G ần</w> 179857
x úc_ 179714
d ương</w> 179703
họ p_ 179676
h iểm_ 179560
uy ện_ 179533
Uỷ_ viên</w> 179486
m ỏ</w> 179355
s ắp_ 179297
l ạm_ 179296
VF F</w> 179233
vợ t</w> 179202
yê u_thương</w> 179103
l y</w> 179101
tổ ng_thống</w> 179038
V I 178985
phỏng_ vấn</w> 178985
B à_ 178966
phá o</w> 178958
Nh óm</w> 178898
BH XH</w> 178779
chấm_ dứt</w> 178774
thuy ết_ 178661
hiệ u_l 178446
ũ ng_ 178403
ông_t ư</w> 178386
Can ada</w> 178378
t ắt</w> 178352
phòng_ chống</w> 178295
10 0%</w> 178266
đ ậu</w> 178212
đ ương_ 178199
thầ y_ 178137
t iêu</w> 177994
thật_ sự</w> 177925
ce lo 177923
l ệ</w> 177869
H ọc_ 177800
Th ống_ 177779
b ướ 177774
8 , 177746
tố_ cáo</w> 177605
Hải_ quân</w> 177587
nhận_ xét</w> 177545
chuyể n_đổi</w> 177447
ay_ lập_tức</w> 177382
V ân_ 177337
Thu ỷ_ 177177
T oàn</w> 177100
s ơ_ 176986
y _th 176980
c m</w> 176720
nhất_ định</w> 176712
là nh</w> 176611
S - 176592
C Đ</w> 176534
Đ ình</w> 176484
S te 176302
ấ t_tr 176284
C C</w> 176275
Th ự 176153
Hình_ ảnh</w> 176061
Tuy ên_ 176026
E l 175822
luật_ sư</w> 175774
A d 175731
K ỳ_ 175717
u_tr ưởng</w> 175712
l ở</w> 175639
kí ch_ 175621
vui_ vẻ</w> 175565
ể_ cả</w> 175561
Nh ất</w> 175350
xe_t ải</w> 175264
trường_ học</w> 175238
d ầu_ 175215
Ph ước</w> 175197
m ét</w> 175025
i c</w> 175007
ầ n_tr 174972
kiế n_trúc</w> 174922
nói_ chung</w> 174873
hợp_ pháp</w> 174789
n ền_tảng</w> 174762
C .</w> 174759
công_ chức</w> 174749
ho a_ 174710
nhà_ lãnh_đạo</w> 174697
đ ôi_ 174690
gi ây</w> 174687
ess i</w> 174406
H . 174348
n_l ẻ</w> 174333
E x 174319
sai_ phạm</w> 174268
Mô i_trường</w> 174035
kh uyên</w> 174014
R ất</w> 173948
C ái</w> 173946
th ả</w> 173944
th ông</w> 173919
D ung</w> 173694
ngh ị 173685
_tr ận</w> 173577
c ắp</w> 173542
Cộng_ hoà</w> 173515
th ủ</w> 173408
l ọt</w> 173199
L ễ</w> 173152
đồng_ nghiệp</w> 173146
P re 173088
vào_ khoảng</w> 173078
m ất_ 173028
ừng_ phạt</w> 172971
2 .000</w> 172944
Đại_ hội</w> 172907
ơ i_ 172863
Ngườ i_dân</w> 172817
C ử 172745
nguyên_t ắc</w> 172676
th ở</w> 172638
giao_ lưu</w> 172628
tr iển_lãm</w> 172615
ch ấp</w> 172614
H ơn</w> 172607
đi_ lại</w> 172439
đ ặt_ 172378
CS GT</w> 172301
am es</w> 172248
th ủ 172236
200 6</w> 172214
3 4</w> 172213
ic ro 172170
ê nh</w> 172160
h i 172108
en t</w> 172066
khở i_tố</w> 171975
trọng_t ài</w> 171919
N i 171822
ô tô</w> 171755
tr ừng_phạt</w> 171732
T ú</w> 171709
Đ ề_ 171626
x uố 171584
K ế_hoạch</w> 171538
v it 171423
Gi a_đình</w> 171409
u r</w> 171320
M on 171273
_ con</w> 171180
b e</w> 171175
u_th ông</w> 171162
đá m_ 171150
th ùng</w> 171033
ch ua</w> 171018
hiệu_l ực</w> 171002
Thế_ giới</w> 170971
í nh_ 170961
ou r 170914
cả n</w> 170901
ú i_ 170883
n út</w> 170816
hôn_ nhân</w> 170770
3 3</w> 170722
a d</w> 170707
th ần_ 170693
th ói_quen</w> 170654
do w 170574
Tu y</w> 170572
sá nh</w> 170551
W e 170523
L ương_ 170494
ớ n</w> 170378
đấ u_tr 170239
lư u_thông</w> 170159
c anh</w> 170150
ri nho</w> 170106
hiệ u_ 170033
công_ cộng</w> 170031
M y</w> 170004
H y_ 169985
8 - 169978
ng ưỡng</w> 169867
d ắt</w> 169820
T ỉnh_ 169815
thế_ này</w> 169778
b á</w> 169777
Đ a_ 169744
Công_ Thương</w> 169620
Olym pi 169588
tr ưở 169548
bu ýt</w> 169502
g ọn</w> 169483
ch ìm</w> 169470
_tr ách</w> 169447
Quố c_tế</w> 169444
tr í 169188
AF P</w> 169104
dẫn_ đầu</w> 169032
Real _M 168979
nh ựa</w> 168935
ch ấm</w> 168917
Mou rinho</w> 168883
hư _h 168834
0 0.000</w> 168814
ký_ kết</w> 168813
đ ắt</w> 168762
p ool</w> 168730
th e</w> 168568
tí nh_toán</w> 168532
F ran 168384
chuy ền</w> 168339
giấy_ phép</w> 168311
H iền</w> 168228
m_t úc</w> 168223
họp_ báo</w> 168072
en d 168057
H uy_ 168024
m ây</w> 167961
b ơi</w> 167858
nhà_th ầu</w> 167594
tiế c</w> 167527
tự _hào</w> 167523
s iêu_ 167466
kh en</w> 167397
nhẹ _nh 167390
r ào</w> 167320
Kho ảng</w> 167310
ờ_ đợi</w> 167240
lâu_ dài</w> 167168
9 %</w> 167128
ar d 167045
b ỏng</w> 167042
V - 167038
vào_ cuộc</w> 167033
b ằng_ 167030
k a</w> 166986
nh ắn</w> 166956
v ững_ 166918
l ệch</w> 166917
P er 166877
Tổ _ 166778
Đài_ Loan</w> 166770
m uộ 166747
nghiê m_túc</w> 166704
dự_th ảo</w> 166382
tiêu_ cực</w> 166325
T am_ 166261
Chúng_t a</w> 166233
tr o 166218
19 4 166160
C à_ 166036
v ận</w> 165989
Hà_ Lan</w> 165954
kh ủng</w> 165919
d ứt_ 165825
M er 165818
t ắm</w> 165635
đại_ gia</w> 165610
H ệ_thống</w> 165554
W al 165488
n iêm_ 165289
độ t</w> 165206
d ị</w> 165155
â u_thuẫn</w> 165088
trộ m</w> 165043
g e</w> 165036
bu ôn_ 164969
tr à</w> 164959
hài_ lòng</w> 164952
t ải</w> 164902
ươ i</w> 164886
Real_M adrid</w> 164760
b ù</w> 164697
lợ i_thế</w> 164677
vùng_ biển</w> 164644
chế_t ạo</w> 164587
từ _ 164567
ch ờ_đợi</w> 164453
B iên</w> 164451
bá nh_ 164443
n ia</w> 164330
h ảo</w> 164252
d ính</w> 164200
ảng_ cách</w> 164173
m ệt_ 164076
thuyết_ phục</w> 163984
M V</w> 163976
ngh ị_ 163954
v ả</w> 163947
Nhân_ dân</w> 163946
Li ver 163905
C ông</w> 163891
8 00</w> 163888
Đ iểm</w> 163887
t h</w> 163800
m ổ</w> 163750
tỷ_ số</w> 163666
8 . 163611
chỉ _huy</w> 163557
tốt_ đẹp</w> 163458
thiên_ nhiên</w> 163456
khí _hậu</w> 163445
Đ iện_ 163295
một_ chút</w> 163115
đám_ cưới</w> 163083
thiết_ lập</w> 163073
HĐ ND</w> 162968
đ ĩa</w> 162961
th ượng_ 162827
ch ăn_ 162755
quyết_ liệt</w> 162650
qu ầ 162648
Ch ủ 162565
n_l ỗi</w> 162559
7 . 162537
gh ép</w> 162502
cử _tri</w> 162471
ý _thức</w> 162466
nước_ mắt</w> 162465
e o_ 162423
đấu_tr anh</w> 162364
liên_ hệ</w> 162360
vật_ chất</w> 162353
bu m</w> 162252
ma il</w> 162004
ch ân_ 161966
ẩ y</w> 161953
Bar ca</w> 161926
v a_ 161924
il e</w> 161883
i_d ưỡng</w> 161805
c am</w> 161728
iên_t oà</w> 161713
cảm_ ơn</w> 161645
phạm_ vi</w> 161630
h ứ 161533
chủ _trì</w> 161513
đ ấu_ 161495
ons _League</w> 161485
ại_tr ưởng</w> 161476
T i 161463
biểu_ hiện</w> 161449
l ad 161397
đ u 161331
5 0%</w> 161266
đa_ dạng</w> 161128
m ốc</w> 161075
ỗ ng</w> 161074
ngh ỉ_ 160995
n ở</w> 160948
á ch_ 160865
ng ư_dân</w> 160828
/ 12</w> 160794
Chí nh_trị</w> 160705
l and</w> 160602
S . 160598
l ít</w> 160572
ẫ m</w> 160506
G ala 160483
_c ửa</w> 160432
h ệ_ 160423
uy ên_ 160289
3 7</w> 160269
ng_tr ọng</w> 160248
tu ổ 160247
tr ợ_ 160102
al - 160062
nó ng_ 160059
ú t_ 160041
N AT 160013
nghiê m</w> 159921
L ương</w> 159867
v en 159844
ất_ vả</w> 159824
k ể_cả</w> 159822
ẫ u_ 159814
l ặng</w> 159719
_th iệp</w> 159711
Champi ons_League</w> 159670
2 2/ 159651
nhân_ lực</w> 159579
tập_ luyện</w> 159556
Liver pool</w> 159547
K inh_ 159527
G ra 159521
Đ ắ 159479
B ất_ 159447
a_h è</w> 159394
l ộ 159335
Ú c</w> 159273
có _vẻ</w> 159258
ch ốt</w> 159197
Gi ả 159168
r y 159133
H S</w> 159133
_t ài</w> 159100
bình_ quân</w> 159083
W il 158960
B ến_ 158914
y_t ờ</w> 158878
Đị a_ 158790
thông_th ường</w> 158758
h ằng</w> 158678
Man_ City</w> 158662
H on 158540
gi ờ_ 158381
gi ày</w> 158372
đoàn_ kết</w> 158300
H e 158265
al _ 158230
D anh_ 158186
t - 158125
Re al</w> 158099
es ter 158011
e v</w> 157964
b ến</w> 157944
sho w</w> 157859
st an</w> 157803
đội_ hình</w> 157732
B S</w> 157684
s ự_thật</w> 157646
hiệ p_ 157602
n_t ập</w> 157591
B ạch_ 157561
hoàn_t ất</w> 157561
NAT O</w> 157509
s ở 157442
c ột</w> 157439
trưở ng_thành</w> 157390
uy ề 157334
ta xi</w> 157324
tr ống</w> 157278
Qu an_ 157277
phụ _thuộc</w> 157214
chiế n_sĩ</w> 157127
_ch ịu</w> 156982
B en 156878
th uyền</w> 156826
A P 156821
ng ọn</w> 156759
tàu_ ngầm</w> 156728
quá _kh 156637
ng ắm</w> 156634
TA ND</w> 156626
ánh_ sáng</w> 156602
giấ y_tờ</w> 156598
o át</w> 156595
xuất_ phát</w> 156583
L ần</w> 156530
kh âu</w> 156486
B V</w> 156480
ch e</w> 156475
s u</w> 156449
m e</w> 156246
v inh_ 156221
can _thiệp</w> 156183
V ương</w> 156178
truy _ 156162
2 1/ 156150
hà o_ 156147
ưu_ đãi</w> 156069
v ất_vả</w> 156050
n ề</w> 156023
Thự c_tế</w> 155996
v õ 155986
tại_ sao</w> 155976
nhà_ báo</w> 155915
r ũ</w> 155799
N G 155683
Nh ờ</w> 155639
tr ôi</w> 155597
hỗ n_ 155593
khối_ lượng</w> 155523
qu ần</w> 155466
_l ệ</w> 155444
d âu</w> 155426
6 5</w> 155359
d i</w> 155341
xác_ minh</w> 155338
hôm_ qua</w> 155248
L on 155237
m âu_thuẫn</w> 155198
l ần_ 155189
5 5</w> 155127
L ý</w> 155052
yê u_ 155045
3 8</w> 154991
l ập_ 154962
làm_ sao</w> 154908
v ỉ 154902
ý_ định</w> 154867
nghi_ ngờ</w> 154851
nhẹ_nh àng</w> 154827
/ 1</w> 154803
H ãng</w> 154768
A u 154727
Công_ nghệ</w> 154694
Th ịnh</w> 154653
xi n_lỗi</w> 154640
tr ừ</w> 154613
b ác</w> 154566
M is 154565
H ạ 154551
mệt_ mỏi</w> 154503
ưở ng_thức</w> 154462
t iệc</w> 154423
B C</w> 154348
l ọc</w> 154320
th an</w> 154289
định_ cư</w> 154207
ch o 154170
ê _h 154022
ũ _ 153982
20 00</w> 153923
đồng_ bào</w> 153876
Th ăng_ 153773
đánh_ bại</w> 153734
ẩ u</w> 153724
đạo_ đức</w> 153699
tạ p_chí</w> 153607
nh ạc_sĩ</w> 153602
phân_ phối</w> 153588
M T</w> 153503
S ao</w> 153469
Đ ố 153260
Đạ i_diện</w> 153246
Đông_ Nam_ 153240
khai_ mạc</w> 153216
đ à</w> 153158
r ãi</w> 153146
a f 153140
bu r 153121
t ết</w> 153113
V ậ 153061
phụ _trách</w> 152933
iễ n_thông</w> 152806
B ank</w> 152701
vit amin</w> 152647
C ầu</w> 152593
s c 152567
Tr ị</w> 152379
tổ n_thương</w> 152369
cứ u_ 152246
ẩ n_ 152245
tranh_ cãi</w> 152035
tu y</w> 151980
khẩ n_ 151928
s iêu_th 151911
Th am_ 151849
kho ảng_cách</w> 151843
K o 151818
d ây_ 151480
v ẹn</w> 151447
m ất_t 151402
M il 151367
s ắc_ 151356
bảo_t ồn</w> 151325
ẳng_ hạn</w> 151323
thuỷ _sản</w> 151310
sắp_ xếp</w> 151294
Hiệ p</w> 151249
Thành_ uỷ</w> 151247
giảm_ giá</w> 151221
B O 151193
th iên_t 151152
m ỡ</w> 151136
m an 151004
gặp_ gỡ</w> 150978
cá nh_ 150976
ế_ bào</w> 150945
Gi ấy</w> 150941
iệt_th ự</w> 150935
giám_ khảo</w> 150934
ổ _thông</w> 150925
Khánh_ Hoà</w> 150854
a e 150799
Ho l 150761
C ẩm_ 150708
P al 150703
X em</w> 150647
quyề n_lợi</w> 150607
i_d ụng</w> 150554
1 50</w> 150550
Ch úng</w> 150506
năm_ học</w> 150502
xung_ đột</w> 150499
/ 2</w> 150498
M ạnh_ 150460
ent ina</w> 150452
biểu_t ình</w> 150435
Vũ ng_ 150392
Đ áng</w> 150255
tuyển_ sinh</w> 150249
h ưu</w> 150213
d er 150186
h i_ 150137
hà nh_t 150088
L iên</w> 150068
B ước</w> 150014
g ương</w> 150000
ái_t im</w> 149976
ph iên_toà</w> 149961
iên_ liệu</w> 149858
bướ m</w> 149855
Ar g 149843
ên_t uổi</w> 149792
t iể 149650
r ỡ</w> 149646
vỉ a_hè</w> 149522
M U</w> 149423
m ỹ_ 149338
kích_th ước</w> 149288
_ V 149260
co m</w> 149241
t â 149163
th ưởng_thức</w> 148998
i_ C 148847
ng_tr ường</w> 148792
S an 148783
cải_t ạo</w> 148765
hoàn_ hảo</w> 148740
cô_ giáo</w> 148709
bà n_t 148703
t ức</w> 148697
chứ ng_t 148696
t ách</w> 148691
thái_ độ</w> 148663
d ung</w> 148626
Ng ãi</w> 148611
7 00</w> 148516
h ải</w> 148470
2 8/ 148409
đường_ bộ</w> 148403
gắn_ bó</w> 148380
chủ_ quyền</w> 148244
_t inh</w> 148177
Ph ước_ 147936
ì _ 147914
d ấu_ 147830
khẩn_ cấp</w> 147708
đóng_ cửa</w> 147705
tận_ dụng</w> 147621
es t 147602
muộ n</w> 147506
ghi_ bàn</w> 147493
đ ến_ 147434
lần_ lượt</w> 147432
R om 147415
bất_th ường</w> 147383
b ụi</w> 147378
đặ c_s 147359
phát_ ngôn</w> 147311
Bar celo 147233
ph ủ 147216
Pu tin</w> 147189
d ày</w> 147178
o r</w> 147120
ng ược_lại</w> 147064
B ồ 147044
t ức_ 147040
10 .000</w> 147002
số_l iệu</w> 146981
H à 146976
And ro 146971
ã n_ 146956
khám_ phá</w> 146955
V TC</w> 146908
Par is</w> 146817
c ắt_ 146811
đối_ phương</w> 146762
tô n_trọng</w> 146746
_nh ận</w> 146595
Ng ân</w> 146552
t ỉ_ 146473
Ang el 146467
cơ _s 146445
2 6/ 146365
H àng_ 146362
t ế_bào</w> 146361
T oàn_ 146346
Ch uyện</w> 146335
động_ lực</w> 146285
i_t ệ</w> 146204
C uộ 146073
quảng_ bá</w> 145991
P i 145969
_ D 145933
H ồi</w> 145913
Ngo ại_trưởng</w> 145835
Th ông_tư</w> 145754
200 5</w> 145733
c_tr ưng</w> 145725
nhà _t 145673
E u 145655
m ỹ</w> 145630
l ú 145508
công_ cụ</w> 145483
b ông</w> 145479
Tr ao_đổi</w> 145405
tr òn</w> 145372
điệ p</w> 145333
Pre mi 145210
ng ăn</w> 145209
M u 145186
nh an_ 145182
v ây</w> 145145
nghiê m_ 145106
trò _chơi</w> 144944
nh iên_liệu</w> 144917
T - 144912
V ideo</w> 144860
qu en_th 144852
D ưới</w> 144785
201 9</w> 144736
lư u_tr 144665
kị ch_ 144640
b ổ</w> 144603
Th iên</w> 144587
T in</w> 144575
C ần</w> 144520
đề_ cập</w> 144495
s o_ 144464
biế n_đổi</w> 144390
buôn_ bán</w> 144373
quyề n_lực</w> 144357
ầm_ non</w> 144323
G L</w> 144271
v ươn</w> 144242
quen_th uộc</w> 144140
ê_h ương</w> 144128
chức_ vụ</w> 144080
t ên_tuổi</w> 144036
cực_ kỳ</w> 143998
đồng_ bộ</w> 143956
đất_ đai</w> 143936
o_ l 143933
di_ sản</w> 143842
đ o</w> 143751
G B</w> 143677
_t ình</w> 143612
Barcelo na</w> 143559
Ch u_ 143519
c ủ</w> 143466
dự_ đoán</w> 143400
một_ mình</w> 143379
M essi</w> 143319
loại_ bỏ</w> 143318
t i</w> 143304
mất_t ích</w> 143275
th ẳ 143274
Nh ìn</w> 143231
doanh_ nhân</w> 143157
Th ông_ 143155
đ ể 143124
M icro 143030
l âm</w> 142953
tà i_trợ</w> 142914
nặng_ nề</w> 142871
quả n_trị</w> 142836
Mi ch 142811
G o 142757
chăn_ nuôi</w> 142750
sa ng_trọng</w> 142738
lạc_ bộ</w> 142678
ngh iện</w> 142674
_ R 142620
er s</w> 142620
Tổ_ quốc</w> 142587
ic a</w> 142576
s ôi_ 142559
bá n_lẻ</w> 142558
đặ c_trưng</w> 142534
x ứng_ 142533
A f 142528
ã i_ 142512
k y 142506
_th ách</w> 142480
bá t</w> 142413
tí ch_hợp</w> 142362
ph ươ 142359
đ ảng_ 142323
A P</w> 142306
Qu ỳnh</w> 142292
Ngh iên_cứu</w> 142291
Nh i</w> 142258
iển_ hình</w> 142226
qu ản_ 142197
_th ích</w> 142146
x ico</w> 142138
Nguyên_ nhân</w> 142055
ạt_ lở</w> 142022
l iên</w> 142005
u p</w> 141977
s ăn</w> 141922
ph ổ_thông</w> 141878
S i 141852
Lê_ Văn_ 141831
n ướng</w> 141790
l ang</w> 141625
L àm</w> 141574
m óc</w> 141518
d âm</w> 141492
B a 141419
cân_ bằng</w> 141418
gi ường</w> 141408
Andro id</w> 141286
ê nh_ 141265
sai_ lầm</w> 141208
ến_ rũ</w> 141055
X ô</w> 141034
ù n</w> 140985
k o</w> 140959
Thương_ mại</w> 140892
phò ng_th 140883
hạ ng_ 140851
ho àn</w> 140706
o_ đuổi</w> 140684
đ ẻ</w> 140675
cảm_ nhận</w> 140625
hạng_ mục</w> 140617
ấn_đ ấu</w> 140528
chấp_ hành</w> 140522
Tổ ng</w> 140494
7 5</w> 140408
bán_ kết</w> 140390
Lon don</w> 140364
dứt_ điểm</w> 140354
n_t âm</w> 140300
A S 140294
b iết_ 140293
v òng_ 140273
K hoa</w> 140260
1 1/201 140226
độ _ 140194
xứng_ đáng</w> 140150
kh iếu_ 140149
nhị p</w> 140105
i_t ình</w> 140026
Tỉnh_ uỷ</w> 140013
quy ến_rũ</w> 139997
T ài</w> 139993
9 . 139814
t ây</w> 139712
l ẽ</w> 139705
rộng_ rãi</w> 139693
C H 139580
qu ê_hương</w> 139561
Quảng_ Ngãi</w> 139492
hoá _chất</w> 139480
xo á</w> 139465
thự c_th 139439
m en</w> 139420
Un it 139307
t ưởng</w> 139258
sâu_ sắc</w> 139248
phát_ sinh</w> 139216
ng ay_lập_tức</w> 139211
da nh_t 139204
s p 139164
vũ _trang</w> 139163
Tr à</w> 139128
giới_ hạn</w> 139117
d ạ 139096
b iệt_thự</w> 139089
Ch ung</w> 139074
M or 139060
d u 139025
c ốt</w> 138990
Nh iệt_ 138915
Trần_ Văn_ 138831
y l 138772
bạo_ lực</w> 138736
Hợ p_ 138722
Th ừa_ 138685
t ân_ 138551
/201 5</w> 138538
s a</w> 138486
L H 138473
kho ẻ_ 138449
s ite</w> 138411
M ặt_ 138384
ương_ vị</w> 138317
m_t ội</w> 138280
ag e</w> 138270
nh ấn</w> 138243
tín_ hiệu</w> 138178
10 - 138172
t ượng</w> 138111
ho t</w> 137990
Cá t_ 137940
o ạn</w> 137896
d a_ 137805
C ơ 137797
bạ n_đ 137790
s ạt_lở</w> 137743
in ch</w> 137707
tin_ đồn</w> 137686
iết_ kế</w> 137623
h ầu_ 137552
Đại_ sứ</w> 137539
ân_th ủ</w> 137531
trưng_ bày</w> 137510
Arg entina</w> 137484
an i 137468
phục_ hồi</w> 137414
New_Yor k</w> 137383
Tr ần</w> 137368
B Đ 137353
C P 137344
n .</w> 137337
th ần</w> 137224
an o 137140
xe_ buýt</w> 137139
Ch ỉ_ 137083
V al 137043
tăng_ giá</w> 137035
bổ ng</w> 137031
C E 137016
t âm</w> 137001
at e</w> 136973
c_s ỹ</w> 136953
_ chuyện</w> 136952
ch ị 136928
xuất_ bản</w> 136893
h eo</w> 136889
m ỏng</w> 136862
Học_ viện</w> 136860
ảnh_ khắc</w> 136805
tiểu_ học</w> 136790
Thể _thao</w> 136660
chú _trọng</w> 136589
ồ n_lực</w> 136550
Mos co 136517
n am 136506
1, 5</w> 136455
A t 136427
C K</w> 136425
v ir 136348
v ở</w> 136325
thuỷ_ điện</w> 136291
Thái_ Bình_Dương</w> 136217
ch ương</w> 136207
s ưu_t 136182
Ch ánh</w> 136167
p ro 136083
tư _nhân</w> 136065
ưỡ i</w> 136053
ph i 136003
O S</w> 135936
qu y</w> 135922
b ọn</w> 135860
ẹ n_ 135854
el l</w> 135789
K e 135780
l ò</w> 135769
the o_đuổi</w> 135751
F - 135750
bà i_t 135657
a ra</w> 135648
w eb 135546
ưở i</w> 135531
b ùng_ 135383
r iê 135322
3 1/ 135276
mở _cửa</w> 135172
al bum</w> 135136
tu ân_thủ</w> 135123
m ọc</w> 135046
giấ c</w> 135026
sản_ lượng</w> 135001
ho ả</w> 134989
T & 134912
l iệt_ 134713
tố i_th 134686
3 9</w> 134668
khó i</w> 134662
A i</w> 134630
tr ò</w> 134591
9 - 134588
ú p_ 134469
s uy 134427
V ĐV</w> 134416
ngu ồn_lực</w> 134409
hư_h ỏng</w> 134365
ừ a_đ 134317
đối_ đầu</w> 134248
L ao_động</w> 134175
T& T</w> 134125
Y ou 134116
hộ i_thảo</w> 134067
ạc_ nhiên</w> 134052
th ận</w> 134010
m ãn</w> 133944
ừa_đ ảo</w> 133892
N ước</w> 133836
kh é 133711
từ _th 133692
Đông_Nam_ Á</w> 133639
tu ần_tr 133620
0 1</w> 133614
gi ận</w> 133573
Ph ía</w> 133555
Dav id 133554
m úa</w> 133530
B TC</w> 133478
độc_ giả</w> 133347
Báo_ cáo</w> 133333
Q L 133282
biểu_t ượng</w> 133273
tr ái_tim</w> 133247
khuôn_ khổ</w> 133244
ất_ nhiên</w> 133237
đ ới</w> 133221
củ ng_ 133185
củng_ cố</w> 133169
v í_dụ</w> 133157
T ấn_ 133142
10 %</w> 133072
n át</w> 133064
hoá _ 133001
B l 132989
trang_tr í</w> 132987
s ụ 132958
BO T</w> 132951
s ơn</w> 132912
l inh</w> 132903
c ương</w> 132860
ngày_ nay</w> 132848
nguy ện_ 132838
kê u</w> 132765
I D 132763
T ừ 132692
L inh_ 132670
sáng_t ác</w> 132634
làm_ ăn</w> 132600
_L ong</w> 132553
thi _thể</w> 132553
ước_t ính</w> 132426
ace ae</w> 132420
B al 132394
u_h ộ</w> 132354
Liên_ Xô</w> 132230
a ta</w> 132222
đối_th oại</w> 132213
kh ớp</w> 132202
Win dow 132158
ưa _thể</w> 132150
H ậu_ 132136
Da il 132088
t ông</w> 132045
chú a</w> 132025
gia_ nhập</w> 131973
K ar 131899
nộ i_th 131878
e uro</w> 131877
ph ấn_đấu</w> 131785
thiên_t ai</w> 131763
nghiệp_ vụ</w> 131669
Premi er 131598
tr ong_ 131595
Tr ang_ 131591
thử _thách</w> 131545
thí ch_hợp</w> 131515
y ết</w> 131477
k ì</w> 131475
d àn</w> 131317
T oà_án</w> 131308
Liên_ minh</w> 131192
T ập</w> 131171
người_ bệnh</w> 131128
m ôi</w> 131118
Mosco w</w> 131063
Vũng_ Tàu</w> 131014
ng ạc_nhiên</w> 131011
n_tr ương</w> 131000
N T 130984
Y ến</w> 130915
Ph ải</w> 130838
h ô 130837
Th o 130752
Kho a_học</w> 130649
cử _ 130646
qu ét</w> 130638
H ạnh</w> 130630
l ứa</w> 130524
m ẹ 130499
d ung_ 130498
nhan_ sắc</w> 130497
Gia_ Lai</w> 130470
Do anh_ 130468
K S</w> 130455
qu a_ 130441
or t</w> 130408
duy ệt</w> 130287
Đ ăng_ 130270
Qu ận</w> 130226
n ụ</w> 130198
phươ ng_thức</w> 130187
200 4</w> 130127
Ph áp_ 130125
Thăng_ Long</w> 130055
HA GL</w> 130031
M as 130009
nh_th ái</w> 129983
đông_ đảo</w> 129933
n ại</w> 129905
b er</w> 129898
đ ẹ 129813
đ eo</w> 129690
đ ắp</w> 129670
ng ựa</w> 129614
tối_th iểu</w> 129583
b ón</w> 129554
C ai</w> 129551
l ông</w> 129546
Đ ào_ 129544
tr ung</w> 129521
X ã 129474
B ảo</w> 129450
đ iển</w> 129403
Q T</w> 129354
Lã nh_đạo</w> 129351
l in</w> 129317
nội_ địa</w> 129315
k em</w> 129272
ch ưa_thể</w> 129252
Thái_ Bình</w> 129249
thự c_t 129248
ng ợi</w> 129163
Y T</w> 129161
phạ m_tội</w> 129075
chủ ng</w> 129074
so ft</w> 129031
4 8</w> 129015
tuyệt_ đối</w> 129000
Đạ i_t 128982
D iễ 128951
Bình_ Định</w> 128939
iết_ bị</w> 128922
M ùa</w> 128910
cổ_ đông</w> 128884
Tr uyề 128874
L ê</w> 128871
H ành_ 128799
ướ t</w> 128782
qu a_đời</w> 128720
đa_ số</w> 128608
Tổng_ công_ty</w> 128606
_t ay</w> 128589
niêm_ yết</w> 128588
20 %</w> 128548
3 .000</w> 128537
h ứa</w> 128523
Quảng_ Bình</w> 128496
cứ u_hộ</w> 128439
đề_ án</w> 128322
Th ị 128200
A ra 128174
Me xico</w> 128169
M á 128155
ổ ng</w> 128123
A i_C 128087
Lu ật_ 128074
tiêu_ diệt</w> 128063
công_ viên</w> 128054
t iện_ 128043
L Đ 128010
B ay 127973
tiê m</w> 127973
s en</w> 127970
trang_ web</w> 127913
L an_ 127882
siêu_th ị</w> 127818
_l uật</w> 127815
Ai_C ập</w> 127797
Qu ý</w> 127682
thất_ vọng</w> 127662
giá _ 127651
v iên_ 127639
th ương_t 127639
C B</w> 127637
kịch_ bản</w> 127589
H àn</w> 127568
so_ sánh</w> 127559
m ảng</w> 127528
ol a</w> 127499
for d</w> 127491
l ời_ 127458
Th ường_trực</w> 127451
_s ư</w> 127407
s ợi</w> 127401
B r 127383
H ôm_ 127342
_c ập</w> 127306
s ống_ 127291
n_tr ở</w> 127241
Dự_ kiến</w> 127180
Chi_ cục</w> 127138
Kh u 127119
Cổ_ phần</w> 127051
xo ay</w> 127035
tuần_tr a</w> 127005
o s</w> 126938
ố m</w> 126886
ỹ _thuật</w> 126870
H ơn_nữa</w> 126865
ch âu</w> 126861
a th 126840
th ất_th 126808
Ph úc_ 126800
tr iệu_ 126767
Premier _League</w> 126713
u ý</w> 126692
nhà_ văn</w> 126674
chiếm_ đoạt</w> 126625
minh_ bạch</w> 126605
D ị 126591
c o_ 126576
5 2</w> 126498
ế _th 126482
lắp_ đặt</w> 126386
gợi_ cảm</w> 126265
ng õ</w> 126243
va_ chạm</w> 126238
K u 126224
f i 126216
Tr ái_ 126201
vi c</w> 126197
c ụm</w> 126184
TN T</w> 126170
ch uột</w> 126074
tr ần</w> 126059
trò _chuyện</w> 126049
tính_ chất</w> 126028
B ri 125951
nh ạy_ 125946
C âu_ 125882
b e 125821
T ổ</w> 125792
Micro soft</w> 125751
d âng</w> 125712
an i</w> 125711
en n 125674
es t</w> 125644
nh ìn_ 125642
v er</w> 125545
b ốc</w> 125483
X ã</w> 125468
lợ i_dụng</w> 125425
Ph ụ_ 125305
ọ t_ 125290
Nh a_ 125248
m ới_ 125132
l ắp</w> 125109
O n 125036
_ch ương</w> 124991
w it 124948
trực_th uộc</w> 124948
đó n_ 124916
tiế n_tr 124897
t oà 124887
Tr ắng</w> 124854
phá o_ 124847
ng_l ưới</w> 124835
k iêm</w> 124784
Th êm</w> 124780
hu ỷ</w> 124760
_tr uyền</w> 124753
ti on</w> 124694
H ộ 124685
m ạn</w> 124676
My an 124613
ch ai</w> 124567
4 0 124455
tư _tưởng</w> 124420
kích_th ích</w> 124378
in ter 124328
ẻ o</w> 124324
b ọ</w> 124250
khẩ n_trương</w> 124228
ố p</w> 124217
vùng_ đất</w> 124127
K ể</w> 124104
x ưởng</w> 124098
Đ ất</w> 124096
Nhà_ máy</w> 124090
ng_th uỷ</w> 124089
ar i 124083
từ_th iện</w> 124079
góp_ mặt</w> 123906
độ ng_thái</w> 123878
tại_ chỗ</w> 123854
phá i</w> 123850
nói_ riêng</w> 123827
ng ạch</w> 123809
D i_ 123804
Hu ệ</w> 123740
ngôn_ ngữ</w> 123731
Liên_ quan</w> 123642
đu ôi</w> 123596
tr o</w> 123584
bắt_ buộc</w> 123562
thu_ hoạch</w> 123449
m ến</w> 123439
Đ ại</w> 123390
in a_ 123339
a_h ẹn</w> 123310
Nông_ nghiệp</w> 123302
b ơm</w> 123267
Ch ỉ 123238
phát_ sóng</w> 123228
in o</w> 123223
d uyên</w> 123205
hành_t inh</w> 123198
ng ào</w> 123091
âm_th anh</w> 123080
Th ấy</w> 123016
S ch 123014
th ừa</w> 123010
khuôn_ mặt</w> 122995
tr àn</w> 122949
đà m</w> 122912
quá_kh ứ</w> 122890
C or 122889
3 0%</w> 122876
E n 122851
hoà ng_ 122848
t_th ực</w> 122827
Đ i</w> 122824
_ T 122707
tr e 122704
qu ý_ 122608
hầu_ như</w> 122548
M au</w> 122368
đ è 122360
mặt_tr ời</w> 122356
L ạt</w> 122342
th ức</w> 122326
Có _lẽ</w> 122304
_h ội_ 122269
m ầm_non</w> 122251
đường_ phố</w> 122237
- ĐT</w> 122190
phong_ độ</w> 122181
ú m</w> 122133
Unit ed</w> 122131
_s ỹ</w> 122126
v ải</w> 122122
hứ a_hẹn</w> 122121
ens is</w> 122085
4 2</w> 122077
h ò</w> 121979
ì a</w> 121976
gi ãn</w> 121944
Hải_ quan</w> 121870
l eo</w> 121851
d ông</w> 121703
Ph ần</w> 121684
n_t iến</w> 121676
Hon da</w> 121673
web site</w> 121659
chuyên_ ngành</w> 121572
J os 121514
Kho a_ 121434
kh ơi</w> 121432
_G ames</w> 121377
th ực</w> 121362
Pho ng_ 121292
hải_ quân</w> 121281
4 7</w> 121255
L ạp</w> 121247
ch inh_ 121216
Q H</w> 121213
xe_t ăng</w> 121131
t á 121113
e m_ 121101
gi àu_ 121077
N ộ 121053
V en 121042
to ả</w> 121040
Man ch 121033
Đà o_tạo</w> 121009
v ắng</w> 121001
Hải_ Dương</w> 120963
thuốc_ lá</w> 120913
K iể 120859
g ánh</w> 120822
Gi ải_ 120797
ngh ệ_ 120787
Thu ý_ 120787
m ồ 120750
S ản_ 120676
I II</w> 120651
s k</w> 120635
Ngườ i_ 120625
vir us</w> 120622
c ắm</w> 120525
7 / 120457
tr ạ 120444
cá _tính</w> 120444
chiến_ binh</w> 120435
truy _t 120367
Myan mar</w> 120325
ch ữ_ 120323
L ào_ 120282
r uộng</w> 120225
tố n</w> 120216
Joh n_ 120184
phi_ công</w> 120175
Th áp</w> 120172
đ ình</w> 120030
Đà_ Lạt</w> 119959
Lào_ Cai</w> 119903
Tây_ Nguyên</w> 119796
ki stan</w> 119789
nh ãn</w> 119736
X e</w> 119701
J e 119690
tr âu</w> 119601
tà n_ 119598
to n_ 119530
Đ ừng</w> 119519
tr àn_ 119459
l ừa_đảo</w> 119438
ề_ nghiệp</w> 119412
l ùi</w> 119410
thực_th i</w> 119397
cân_ nhắc</w> 119370
i_t iêu</w> 119300
T X</w> 119247
T HC 119207
t s</w> 119065
i_tr ẻ</w> 119025
Tr ọng</w> 119019
C ầu_ 118883
do_ đó</w> 118859
r ối_ 118827
_th ủ</w> 118793
tương_ đối</w> 118783
đối_ phó</w> 118767
u _trường</w> 118735
h ẹn</w> 118690
con_ cái</w> 118685
tu r 118675
20 .000</w> 118648
le y</w> 118636
S ử 118592
_d ục</w> 118528
trình_ bày</w> 118480
Thường_ vụ</w> 118466
hà m_ 118465
chuyển_ giao</w> 118450
Cà_ Mau</w> 118366
tham_ khảo</w> 118314
Nh ung</w> 118243
ả m</w> 118237
an e</w> 118213
sho w 118183
Đ ường_ 118104
ch ào</w> 118089
C ĐV</w> 117940
Bồ _Đ 117890
ph e</w> 117790
tr ầ 117789
thông_ điệp</w> 117782
V iên</w> 117750
ươ ng_th 117749
an o</w> 117730
tr iệt_ 117706
khó _chịu</w> 117705
d ốc</w> 117650
v ĩ_ 117524
b ê 117516
SEA _Games</w> 117464
thu ê_ 117427
s e</w> 117401
s ập</w> 117397
bi z</w> 117384
N . 117321
Đ ầu</w> 117301
khiếu_ nại</w> 117279
m ẻ</w> 117275
x y_ 117266
Quảng_ Trị</w> 117265
Tr iệu_ 117199
4 6</w> 117166
ou n 117160
P . 117115
lo g 117028
M ình</w> 117013
Ả nh_ 117000
_ điểm</w> 116996
ư_l ệnh</w> 116927
THC S</w> 116883
đồng_ minh</w> 116877
đ ế</w> 116874
p e 116795
ho a_hậu</w> 116652
ởi_ vì</w> 116636
t ưởng_ 116631
ch ân_th 116579
err y</w> 116561
b ọc</w> 116557
Gi ờ</w> 116545
tiêu_ biểu</w> 116541
Tổng_ giám_đốc</w> 116479
Q Đ- 116469
_ ng 116342
Đ ạt</w> 116317
xe_ đạp</w> 116301
d ập</w> 116255
ngh ề_nghiệp</w> 116185
h 30</w> 116180
đ ành</w> 116167
biên_ bản</w> 116133
ố c_ 115952
ăng_ dầu</w> 115950
Đ êm</w> 115948
P ro 115930
Tr à_ 115921
Nha_ Trang</w> 115915
s ứ_ 115914
diễ n_đàn</w> 115888
Xã _hội</w> 115882
tổ ng_thể</w> 115874
h ỏng</w> 115806
ber g</w> 115739
bất_ chấp</w> 115715
ac k_ 115713
trái_ cây</w> 115653
dẫn_ dắt</w> 115606
M ặt_tr 115577
là nh_ 115571
thủ_ môn</w> 115548
tr i 115529
E m 115423
T a 115414
An_ ninh</w> 115383
Do_ vậy</w> 115344
xi t</w> 115335
loại_ hình</w> 115311
ch anh</w> 115295
Đ oàn_ 115289
N Đ- 115287
Nguyễn_Xuân_ Phúc</w> 115252
nhà_ nghiên_cứu</w> 115228
ng ắn_ 115143
R ồi</w> 115066
_tr ụ</w> 115061
thẩm_ định</w> 115057
5 / 115055
ngh ỉ 115000
k ẹt</w> 114906
khoẻ_ mạnh</w> 114765
ph ải_ 114757
t ạo_ 114715
6 4</w> 114704
phân_ biệt</w> 114692
hu ấn</w> 114660
9 9</w> 114634
ch u_ 114606
tư_ cách</w> 114516
bằng_ chứng</w> 114513
T ì 114512
khởi_ nghiệp</w> 114500
ạ _tầng</w> 114498
b ẩn</w> 114494
H uyền</w> 114451
hội_ đồng</w> 114441
i_d ời</w> 114405
D iễn_ 114355
tài_ nguyên</w> 114294
V H 114266
trạ ng_thái</w> 114167
ở_h ạ_tầng</w> 114157
cắt_ giảm</w> 114080
n ếp</w> 114066
P or 114065
U .</w> 114016
phủ _nhận</w> 114011
ng âm</w> 114010
đồng_t iền</w> 113987
an is 113986
l ý_ 113905
d ừa</w> 113901
5 0.000</w> 113898
tr ại</w> 113869
x ạ</w> 113863
u k 113837
ta in 113835
P TNT</w> 113816
Ale x 113711
th u_th 113639
Bay er 113591
nội_ bộ</w> 113580
kho ảnh_khắc</w> 113563
Cu ba</w> 113540
v iễn_thông</w> 113532
n_t in</w> 113532
ẩ m_th 113530
Bộ_ Chính_trị</w> 113500
ch úc</w> 113479
Đ ơn_ 113455
to ur</w> 113454
ứng_ viên</w> 113399
_d ưỡng</w> 113317
X uyên</w> 113303
Hy_ Lạp</w> 113278
v ương</w> 113254
V í_dụ</w> 113170
G P 113135
Q G</w> 113029
p e</w> 113017
m i</w> 113007
ph ổi</w> 112993
iến_ quân</w> 112946
n ồng_ 112915
BH YT</w> 112819
tiê n_tiến</w> 112799
đảng_ viên</w> 112743
phòng_ không</w> 112720
ủ i</w> 112710
tr ộn</w> 112709
GD -ĐT</w> 112700
khởi_ động</w> 112628
ly_ hôn</w> 112604
huy ết_ 112460
thu_th ập</w> 112455
B ỉ</w> 112436
Tuấn_ Anh</w> 112433
nhạy_ cảm</w> 112420
cánh_ cứng</w> 112323
uyện_ viên</w> 112313
J am 112303
nhiệt_ đới</w> 112288
ố t_ 112272
nu ô 112248
đại_ lý</w> 112246
Ph i_ 112222
lo n</w> 112174
hội_ nhập</w> 112156
mạ ng_lưới</w> 112152
d i_dời</w> 112146
ọ n_ 112131
è o_ 112130
n ấm</w> 112122
Trước_ đây</w> 112060
Ba_ Lan</w> 112038
không_ quân</w> 112025
th ợ</w> 112023
r am</w> 112021
4 / 111949
c ường_ 111940
tỉ _lệ</w> 111919
nh_th ủ</w> 111861
tổng_ cộng</w> 111790
v ang</w> 111784
Nam_ Định</w> 111767
Ph ần_ 111750
h y 111736
T ết_ 111734
giảng_ dạy</w> 111727
N A</w> 111717
Bồ_Đ ào_ 111674
u_tr úc</w> 111652
t ướng</w> 111602
Bồ_Đào_ Nha</w> 111578
as s 111571
oo d</w> 111555
i_tr ọng</w> 111537
đề _tài</w> 111531
Chí _ 111520
b a 111467
ph un</w> 111457
tr ẻ 111455
N am 111453
nhân_ sự</w> 111437
F er 111429
chú c_ 111371
m ệnh_ 111332
t_t ay</w> 111321
Th ư</w> 111318
tr ung_th 111299
th ải</w> 111288
d ò</w> 111226
khuyến_ cáo</w> 111222
bài_ học</w> 111193
vi_ khuẩn</w> 111085
lo r 111080
Tài_ nguyên</w> 111058
B i 111033
S ông</w> 111023
phá _ 111012
năng_ suất</w> 110980
thiế t_thực</w> 110970
4 3</w> 110962
lu ồng</w> 110960
Đ iệ 110931
.v n.</w> 110915
ho ảng_ 110910
công_ bằng</w> 110878
Tr ận</w> 110872
V àng</w> 110836
sân_ nhà</w> 110801
đôi_ khi</w> 110761
m ượn</w> 110739
er o</w> 110668
L ợi</w> 110634
tập _trận</w> 110618
H ùng_ 110594
Truyề n_thông</w> 110575
t ố</w> 110482
i_th ầu</w> 110443
T N</w> 110427
iế c</w> 110419
S G</w> 110346
. com 110312
ch _t 110303
b ăng_ 110299
Nguyễn_ Đức_ 110296
Ch u 110249
h ắn</w> 110238
Chi a_sẻ</w> 110200
6 3</w> 110146
nghĩa_ vụ</w> 110053
xúc_ động</w> 110037
F I 110034
4 9</w> 109982
Ph át</w> 109980
H ậu</w> 109972
Par k</w> 109929
lộ _trình</w> 109924
ch e 109912
V P 109906
ư_ phạm</w> 109899
ng ơi</w> 109897
Mar i 109888
cơ_s ở_hạ_tầng</w> 109876
v ướng_ 109841
Á .</w> 109803
4 1</w> 109670
C om 109659
HĐ QT</w> 109651
sá u</w> 109567
7 2</w> 109527
xét_ nghiệm</w> 109346
K iên_ 109271
g ối</w> 109236
Q .</w> 109225
căn_ bệnh</w> 109216
bỏ_ qua</w> 109213
nghệ_ cao</w> 109174
K iên</w> 109148
g ần_ 109109
công_ văn</w> 109100
đ ơ 109087
trọng_ lượng</w> 109048
quầ n_đảo</w> 109035
in e_ 109004
b ó 108988
ch uối</w> 108981
Th ạch_ 108978
V o 108939
Phụ_ nữ</w> 108936
học_ viên</w> 108901
đ ói</w> 108864
Nhiệt_ độ</w> 108827
Thái_ Nguyên</w> 108804
xã _hội_ 108774
H uyền_ 108753
t oà_án</w> 108704
tay_ vợt</w> 108686
Thu ý</w> 108683
n_th ận</w> 108630
B ro 108590
tương_ ứng</w> 108531
Đ an_ 108480
Bả o_t 108444
bàn_t ay</w> 108402
l ấp</w> 108380
s uối</w> 108379
th ú</w> 108336
truy _cập</w> 108334
3 / 108289
ẳng_ cấp</w> 108286
Đố i_t 108281
k _L 108255
triệu_ chứng</w> 108248
nhập_ viện</w> 108247
C ô 108241
thẳ ng_th 108237
th áp</w> 108229
s ay</w> 108217
R u 108110
thân_th iện</w> 108087
ằ n</w> 108032
đấu_ giá</w> 107988
Phạm_ Văn_ 107954
x ỉ</w> 107895
u ất</w> 107834
_L inh</w> 107809
tiế n_bộ</w> 107797
chữ a_ 107750
V ấn_đề</w> 107738
200 3</w> 107697
el la</w> 107693
hàng_ xóm</w> 107675
thí _điểm</w> 107593
Ch ar 107588
4 4</w> 107454
đồng_ hành</w> 107413
am b 107387
U 19</w> 107332
m ù</w> 107331
Kh u_vực</w> 107215
iề u_l 107207
c â 107180
o an</w> 107161
K iến_ 107153
trung_ ương</w> 106933
bạn_đ ọc</w> 106895
C ứ</w> 106846
ho w</w> 106802
12 - 106794
có c</w> 106706
m_th ời</w> 106683
/201 4</w> 106669
th ờ</w> 106664
inter net</w> 106626
al l 106625
x ăng_dầu</w> 106579
đá y</w> 106544
bả y</w> 106508
un d 106498
M c 106478
en a</w> 106468
t s 106460
Đ ộ 106454
phong_ phú</w> 106451
_tr ữ</w> 106439
bị_ can</w> 106439
_t ải</w> 106427
C uối</w> 106349
ế m</w> 106323
v ố 106310
er o 106305
el a</w> 106292
D uyên</w> 106288
quốc_ lộ</w> 106285
al y</w> 106264
l ừa</w> 106231
Trường_ Sa</w> 106172
í m</w> 106161
Đ ài</w> 106155
k e 106103
P G 106088
AP EC</w> 106019
Tổng_ hợp</w> 105939
V ic 105921
n er</w> 105917
To yo 105910
đột_ phá</w> 105897
C uối_cùng</w> 105827
thực_t iễn</w> 105817
biên_ chế</w> 105797
vui_ chơi</w> 105788
Long_ An</w> 105721
nh ở</w> 105682
d ài_ 105680
Olympi c</w> 105680
un i 105661
bí_ ẩn</w> 105655
2- 3</w> 105647
l ượt_ 105581
Bắc_ Ninh</w> 105578
ất_tr í</w> 105560
N ên</w> 105536
kh u_ 105533
Ninh_ Bình</w> 105474
ch ặng</w> 105469
i_tr ả</w> 105451
câu_ lạc_bộ</w> 105446
ch_th ú</w> 105436
_tu ệ</w> 105425
Xu ất_ 105410
H ôm</w> 105405
M ã</w> 105363
Liên_ đoàn</w> 105322
l ục_ 105306
khá t</w> 105304
V TV</w> 105251
D uy</w> 105184
đ ẳng_cấp</w> 105065
Viet nam_ 105038
chinh_ phục</w> 105022
b út</w> 104997
x ách</w> 104966
Đ úng</w> 104963
6 8</w> 104942
Tim es</w> 104916
c ất</w> 104874
gi ản_ 104840
nghệ_th ông_tin</w> 104820
Th ay_ 104755
anh_ch àng</w> 104748
gi ao 104740
đ ùa</w> 104661
ở _d 104661
th ậ 104645
L ễ_hội</w> 104636
đ ỉnh_ 104629
ng ọt_ 104594
D A</w> 104559
v o</w> 104534
ph iến_quân</w> 104531
b ề_ 104526
đường_ dây</w> 104501
ch i_trả</w> 104485
ac e</w> 104478
_t ử</w> 104477
nh ắc_ 104372
c - 104345
tạ m_thời</w> 104315
P lus</w> 104307
quy _t 104200
bỏ_ phiếu</w> 104189
thi_ đua</w> 104181
D L</w> 104135
X X</w> 104133
A g 104118
thẩm_ mỹ</w> 104115
ết_th ương</w> 104111
_d âu</w> 104101
diễn_ xuất</w> 104032
go m</w> 104026
tiế ng_ 103969
Không_ quân</w> 103954
BĐ S</w> 103946
5 4</w> 103936
tiêu_ hoá</w> 103932
hà m</w> 103903
P an 103882
R os 103876
chủ _nhân</w> 103792
chứng_t ỏ</w> 103730
z a</w> 103689
ng ón</w> 103685
cao_ su</w> 103665
thuê_ bao</w> 103653
r i</w> 103637
X in</w> 103622
vướng_ mắc</w> 103608
Tr í</w> 103598
HC M.</w> 103579
show biz</w> 103560
h ẹn_ 103559
hỗn_ hợp</w> 103489
g ãy</w> 103480
trọng_ điểm</w> 103462
i f 103450
thí ch_thú</w> 103421
Dân_ chủ</w> 103395
cẩ n_thận</w> 103371
đầ m</w> 103350
chữa_ cháy</w> 103258
d u</w> 103254
tiết_ mục</w> 103237
sứ_ quán</w> 103227
Toyo ta</w> 103212
cá p</w> 103209
d an</w> 103176
U N 103172
h ối_ 103170
Đề_ án</w> 103097
r l</w> 103096
L a 103088
đánh_ dấu</w> 103083
u_đ ớn</w> 103081
hoá _học</w> 103012
CN TT</w> 103012
ra u_ 102992
l âm_ 102969
văn_ học</w> 102955
199 0</w> 102920
n_th o 102907
p_th uận</w> 102877
ch ém</w> 102851
5 1</w> 102828
n - 102819
Su - 102819
binh_ sĩ</w> 102808
đ iển_hình</w> 102767
6 2</w> 102649
hậu_ vệ</w> 102630
K iểm_ 102615
Sơn_ La</w> 102572
A c 102534
Nhà_ Trắng</w> 102518
giàu_ có</w> 102502
B ích_ 102465
n ắng_ 102432
á t_ 102381
Viet tel</w> 102380
ho ãn</w> 102374
đình_ chỉ</w> 102373
đối_ lập</w> 102357
6 7</w> 102353
dự_ định</w> 102312
d el</w> 102276
NĐ- CP</w> 102267
nữ _sinh</w> 102250
g ũi</w> 102189
TT - 102182
c úng</w> 102130
ú c_t 102105
_h ơi</w> 102094
ng ự</w> 102086
th áo_ 102085
chấ p_thuận</w> 102070
on i 102066
sưu_t ập</w> 102030
Nguyễn_ Hữu_ 102011
Tư_ pháp</w> 101990
Tuy _vậy</w> 101962
x ao</w> 101924
công_ nghệ_cao</w> 101904
ho ang</w> 101853
H er 101847
c as 101828
S inh</w> 101785
. HCM.</w> 101731
giáo_ sư</w> 101685
pho ng_t 101621
ng ân</w> 101577
đố i_diện</w> 101491
Nh ưỡng</w> 101485
N ăm_ 101475
c ải</w> 101444
ở _ 101435
GD P</w> 101429
9 / 101390
mạ o</w> 101389
ứng_ xử</w> 101388
bảo_ quản</w> 101309
qu ãng</w> 101301
hẹn_ hò</w> 101245
C ận_ 101211
gần_ gũi</w> 101196
tiề n_l 101169
5 6</w> 101147
S inh_ 101132
tho ả_ 101089
o _tr 101027
r ạng</w> 101019
Bình_ Thuận</w> 101012
tr ị</w> 100998
T ử 100922
văn_ minh</w> 100900
cải_t iến</w> 100898
bảo_ mật</w> 100833
b ắ 100808
K iều_ 100790
ic e</w> 100762
bộ_ máy</w> 100760
vo i</w> 100751
mẹ _con</w> 100750
P V 100745
phòng_th ủ</w> 100676
an ia</w> 100654
tập_ huấn</w> 100634
K iều</w> 100629
lãng_ mạn</w> 100611
biến_ động</w> 100608
G ar 100601
g ạch</w> 100599
S óc_ 100538
nh ất_trí</w> 100526
Lê_ Thị_ 100524
Thuỵ _S 100507
C al 100471
c ưỡng_ 100394
t iết</w> 100380
ư_ ký</w> 100378
L ệ_ 100326
c ự 100299
kh í_ 100261
Af gh 100256
nh ẫn</w> 100239
l ỗ 100212
n_đ oán</w> 100195
_d ày</w> 100187
10 . 100163
tiề n_t 100163
n ồi</w> 100122
chúc_ mừng</w> 100106
người_ lớn</w> 100085
Nội_ vụ</w> 100015
g ã</w> 100002
c ước</w> 99994
y ên_ 99983
Ch uyên_ 99973
v ết_thương</w> 99947
E D</w> 99940
yê n_tâm</w> 99921
ch uộng</w> 99920
hạ _ 99907
giả i_t 99896
i_t ính</w> 99872
anis tan</w> 99869
c ất_ 99844
k ế_t 99766
C ho 99736
v e 99704
H ạ_ 99659
qu e</w> 99659
t t</w> 99631
l er</w> 99582
Ng ày_ 99572
ước_ mơ</w> 99542
lãng_ phí</w> 99541
th ứ 99464
phát_ động</w> 99449
dân_ gian</w> 99426
không_ kích</w> 99332
Co n_ 99330
ẩm_th ực</w> 99324
c ậy</w> 99248
Th ạnh</w> 99217
hy_ sinh</w> 99210
am p 99206
Tổng_ Giám_đốc</w> 99162
h òn</w> 99156
Bình_ Nhưỡng</w> 99127
v ương_ 99081
r ét</w> 99034
viên_ chức</w> 99021
đa u_đớn</w> 98984
Nguyễn_ Ngọc_ 98936
l ục</w> 98915
tr inh_ 98900
Th ật</w> 98823
n_th ủ</w> 98822
ắp_ nơi</w> 98812
b ạo</w> 98797
n ông</w> 98793
dạ _dày</w> 98792
TP .HCM.</w> 98755
nh ầm</w> 98727
x ưng</w> 98720
To p</w> 98720
đ ặc</w> 98680
giá_ cả</w> 98673
_h iệu</w> 98672
th âm_ 98618
mặt_ đất</w> 98618
y_tr ò</w> 98593
E d 98591
K ong</w> 98586
A M</w> 98518
Afgh anistan</w> 98517
dân_ chủ</w> 98453
tình_ báo</w> 98431
_l a</w> 98429
C ap 98402
Hạ _Long</w> 98401
chi_ nhánh</w> 98394
liên_ minh</w> 98380
đ úng_ 98335
h ước</w> 98240
nh ỏ 98238
ac k</w> 98215
M W</w> 98212
1 20</w> 98203
In de 98196
bu ồn_ 98184
t ư_d 98154
h ẹp</w> 98127
ch i_tiêu</w> 98097
A .</w> 98081
N .</w> 98074
9 00</w> 98037
c ăng</w> 98006
K H 97906
P C</w> 97900
er i 97898
tr e</w> 97895
F C</w> 97893
8 5</w> 97891
te in</w> 97857
lý _tưởng</w> 97742
c úp</w> 97686
trẻ _trung</w> 97665
9 5</w> 97605
bệ nh_t 97571
cấ u_trúc</w> 97542
on line</w> 97533
H IV</w> 97529
Á nh</w> 97529
Phú_ Thọ</w> 97502
nh ì</w> 97460
Ph ật</w> 97406
học_ bổng</w> 97404
dấu_ ấn</w> 97369
ng ộ_ 97367
kh ắp_nơi</w> 97366
F i 97352
Trần_ Thị_ 97352
Thuỵ _Đ 97341
nghỉ_ ngơi</w> 97326
d ọn</w> 97323
G re 97299
ph ầ 97299
h e 97279
dân_ sự</w> 97240
tr iệ 97234
th ắ 97223
T ăng_ 97194
h ái</w> 97183
vũ _trụ</w> 97153
nam_ giới</w> 97119
n_t ắc</w> 97076
M in 97058
T iếng</w> 97010
Thuỵ_Đ iển</w> 96940
es _ 96933
Pa d</w> 96917
m ắm</w> 96870
Bắc_ Bộ</w> 96844
T ác_ 96839
Trường_ hợp</w> 96832
anh_ hùng</w> 96787
T Đ</w> 96724
kh e</w> 96709
m àng</w> 96646
bê _t 96642
kho áng_ 96626
M ỹ 96550
Tr ả_lời</w> 96535
Sa u 96529
thu_ giữ</w> 96510
bình_ chọn</w> 96486
n_ vẹn</w> 96472
á o_dài</w> 96467
bất_ cập</w> 96451
s ôi</w> 96448
VO V. 96414
b iên</w> 96387
vệ _tinh</w> 96343
nguyện_ vọng</w> 96270
Chủ _nhiệm</w> 96258
nhắc_ nhở</w> 96249
châu_ Phi</w> 96201
bản_ quyền</w> 96197
o ảng</w> 96145
giảng_ viên</w> 96142
S on 96134
yế u_ 96130
en s</w> 96113
trực_th ăng</w> 96107
200 1</w> 96090
đẹ p_ 96069
m èo</w> 96032
It aly</w> 96023
â n_trọng</w> 96020
thân_th iết</w> 96002
20 - 95994
s ổ</w> 95980
ại_tr ừ</w> 95965
Kh ê</w> 95961
0 2</w> 95943
g e 95942
4 .000</w> 95876
L y</w> 95825
ứng_ phó</w> 95819
H ầu_hết</w> 95799
D ầu_ 95790
sức_ ép</w> 95778
ng_t ác</w> 95758
199 9</w> 95749
M at 95695
ắ k</w> 95689
d ạy_ 95675
l ines</w> 95619
Qu ý_ 95593
ò _m 95575
L .</w> 95567
8 8</w> 95563
sinh_ học</w> 95552
hài_ hước</w> 95545
L ý 95531
Nguyễ n</w> 95528
huy ề 95523
T iếp</w> 95486
_l ạ</w> 95481
tuyển_ dụng</w> 95435
hạ m</w> 95345
iế m_ 95326
m óng</w> 95319
S ang</w> 95300
th iê 95274
r y</w> 95265
phá i_ 95255
n_l uyện</w> 95248
đo an</w> 95177
danh_ mục</w> 95176
ngọt_ ngào</w> 95162
một_ nửa</w> 95135
cố _tình</w> 95096
Vậ n_tải</w> 95095
5 8</w> 95066
tỷ_ phú</w> 95056
tin_t ức</w> 95050
200 2</w> 94983
ống_ chế</w> 94978
Công_ Phượng</w> 94968
d òng_ 94961
bả n_đồ</w> 94956
S al 94935
L ị 94913
v e_ 94908
tr ụ</w> 94890
T ối</w> 94874
Ro ber 94795
res s</w> 94773
ê - 94744
người_ nhà</w> 94737
G a 94731
10 0.000</w> 94731
Gi ới</w> 94696
Đ ộng</w> 94690
An_ Giang</w> 94635
th á 94613
to r</w> 94610
Phú_ Yên</w> 94602
ra d 94585
N ếu_như</w> 94567
to_ lớn</w> 94546
2 50</w> 94523
h o</w> 94518
ng er</w> 94508
. com</w> 94485
tuy ệt</w> 94469
dữ _d 94458
nổ i_d 94447
o_d ù</w> 94428
c ống_ 94398
an s</w> 94347
t iểu</w> 94299
qu ý 94286
To t 94273
d ãy</w> 94265
hiện_ diện</w> 94260
tr ả_ 94220
ù n_tắc</w> 94207
HC V</w> 94197
huyề n_thoại</w> 94193
ch ênh_ 94172
Tr ấn_ 94162
o l</w> 94155
tu ỳ 94142
I A</w> 94120
Kh ắc_ 94093
B é</w> 94086
Co lo 94080
v inh</w> 94063
5 3</w> 93991
Gi ang_ 93909
bo t</w> 93854
hải_ sản</w> 93831
m ăng</w> 93804
động_ đất</w> 93795
đồ i</w> 93790
Đ a</w> 93668
m ặn</w> 93639
I C 93608
phá _h 93566
B . 93463
đô _la</w> 93445
Trung_ Đông</w> 93444
đ ắc_ 93439
l ắng_ 93420
nướ c_thải</w> 93372
PC CC</w> 93366
1 1- 93365
ôn_ xao</w> 93342
trinh_ sát</w> 93325
đề n_ 93321
d án</w> 93213
đón_ nhận</w> 93191
Giả i_th 93172
nh ắm</w> 93168
ph ê_ 93168
Má y_ 93156
lành_ mạnh</w> 93147
c_tr ạng</w> 93072
giả ng</w> 93042
5 7</w> 93012
N or 92996
xe_ khách</w> 92985
cây_ xanh</w> 92902
học_ hỏi</w> 92876
kh ởi</w> 92874
K iếm</w> 92858
tr ượt</w> 92831
thảm_ hoạ</w> 92824
Lâm_ Đồng</w> 92821
ượ ng_t 92793
Liên_ hợp_ 92772
Đảng_ uỷ</w> 92768
Thực_ hiện</w> 92761
ti nh_tế</w> 92738
gi ữ_ 92721
lưu_tr ữ</w> 92693
huy _chương</w> 92668
Q uyền</w> 92667
u_th ầu</w> 92652
t iên_ 92637
l át</w> 92616
ch ấn_ 92592
Ngh i_ 92591
d ã</w> 92583
B ác</w> 92579
t iệm</w> 92559
phá_h uỷ</w> 92556
quy_ chế</w> 92484
en c 92431
S co 92430
tư_d uy</w> 92419
khách_ quan</w> 92408
i r</w> 92407
trọng_t âm</w> 92386
Doanh_ nghiệp</w> 92362
Liên_hợp_ quốc</w> 92353
h ô</w> 92349
iểu_ biết</w> 92313
thẳng_th ắn</w> 92275
T iền</w> 92243
6 0 92241
hữu_ nghị</w> 92227
B ị</w> 92212
H ay</w> 92192
cá _ 92161
com bank</w> 92124
r ạp</w> 92123
i b 92119
từ_ bỏ</w> 92112
Nh ận</w> 92056
thực_ chất</w> 92017
ch ạy_ 91999
Hà_ Đông</w> 91991
mụ n</w> 91989
m_t oán</w> 91984
tr ùm</w> 91934
sinh_ nhật</w> 91898
trang_ điểm</w> 91864
bảo_ hiểm_ 91863
ngoại_ hình</w> 91863
Á _hậu</w> 91856
12 . 91854
ti c</w> 91838
B ang 91820
tâ m_tr 91812
M ac 91756
M ức</w> 91722
ng_th iết_bị</w> 91720
phần_ nào</w> 91686
l õi</w> 91670
ch è</w> 91643
h ang</w> 91623
chỉ_ định</w> 91621
gi rl</w> 91602
ph im_ 91592
sá ch_ 91542
Dị ch_ 91473
Anh_ Tuấn</w> 91467
sáng_ lập</w> 91412
vô_t ình</w> 91384
G ro 91375
B - 91369
It alia</w> 91355
ông_ bà</w> 91324
mở _ 91295
kh ống_chế</w> 91294
r è 91239
c ấu_ 91224
Hội_ đồng_ 91189
bu ôn</w> 91160
wit ter</w> 91160
h iểu_biết</w> 91136
Bá c_sĩ</w> 91121
_th ẩm</w> 91117
i_t ử</w> 91093
Nh ã_ 91068
làm_ đẹp</w> 91051
rối_ loạn</w> 91030
huấn_l uyện_viên</w> 90996
T ư</w> 90985
P .</w> 90963
n ảy_ 90947
P l 90937
d ược</w> 90931
sơ _thẩm</w> 90924
v il 90921
ch iêu</w> 90917
d ị_ 90893
L in 90859
n_t iếp</w> 90850
es t_ 90850
p_ học</w> 90848
vị _thế</w> 90833
đăng_ quang</w> 90832
K y 90803
hiệ n_th 90796
nhìn_ nhận</w> 90796
Air lines</w> 90783
_s át</w> 90749
_h ạn</w> 90714
Ch ủ</w> 90703
nông_ sản</w> 90693
thập_ niên</w> 90675
Giáo_ sư</w> 90671
nghỉ _dưỡng</w> 90671
K H</w> 90621
ho ại</w> 90610
linh_ hoạt</w> 90580
n ếu_như</w> 90551
T iên_ 90528
kí p</w> 90520
tham_ mưu</w> 90449
chiến_th uật</w> 90433
ữ_ hoàng</w> 90412
N D 90394
lo a</w> 90368
m iễn</w> 90347
Đà m_ 90336
V lad 90315
Vin a 90315
m ày</w> 90269
l ậu</w> 90260
Ho ng_ 90254
đồng_ nghĩa</w> 90205
S L 90203
cá ch_th 90193
tính_ cách</w> 90191
ch iề 90154
thí ch_ 90115
15 - 90100
song_ phương</w> 90092
x ôn_xao</w> 90089
Ch ứng_ 90087
t ủ 90075
l ấn_ 90015
ng ành_ 90014
km / 89957
g ắt</w> 89919
c ong</w> 89908
ay _tr 89888
cử_ viên</w> 89885
Mich a 89871
a k</w> 89857
dữ_d ội</w> 89841
ti ng</w> 89833
ti c 89811
tra nh_thủ</w> 89785
C ậu</w> 89770
v es 89762
Dail y_ 89746
chấ t_th 89715
chất_th ải</w> 89703
chỉ nh_ 89701
7 0%</w> 89689
g ay_ 89673
ho an_ 89621
vận_ động_viên</w> 89608
chiế n_trường</w> 89576
luật_ pháp</w> 89575
nh_t ay</w> 89554
khô i_ 89541
Ngh e</w> 89532
V u 89484
l ỏng</w> 89468
sôi_ động</w> 89445
n_th u 89439
tra ng_thiết_bị</w> 89435
n_ M 89416
_th ân</w> 89399
m 3</w> 89381
Đại_t á</w> 89381
30 - 89272
C ali 89262
km/ h</w> 89218
To ky 89207
T ôn_ 89167
ic k 89148
lạm_ phát</w> 89137
C a 89132
T witter</w> 89040
t âm_th 89031
đ ứt</w> 88988
C as 88974
nội_th ất</w> 88971
H iển</w> 88931
Bắc_ Giang</w> 88921
cống_ hiến</w> 88883
v ò 88824
G en 88815
th ổi</w> 88788
10 0 88753
u ra</w> 88736
on ey</w> 88717
10 / 88704
6 6</w> 88635
năng_ động</w> 88626
dự_ phòng</w> 88575
an n 88571
2, 5</w> 88570
n ạp</w> 88531
K S 88510
ẩ n_đoán</w> 88495
lin ton</w> 88487
co l 88395
bồ i_dưỡng</w> 88365
tươ i_ 88341
chênh_ lệch</w> 88322
s ợ 88314
C H</w> 88314
xe _hơi</w> 88308
r ẽ</w> 88290
quá _tải</w> 88275
gia_ vị</w> 88270
đối_ ngoại</w> 88269
Ph ùng_ 88268
ắc_ mắc</w> 88260
phòng_ ngự</w> 88259
T R 88241
k ý 88210
g ìn</w> 88208
thầ y_trò</w> 88173
d ụng_ 88100
ng_l ợi</w> 88083
Kiể m_tra</w> 88077
ng ô</w> 88070
Window s</w> 88070
tức_ là</w> 88034
nh í</w> 88028
O anh</w> 87987
B lu 87982
tí m</w> 87972
nh ãn_ 87941
Ch iến_ 87939
Hà_ Giang</w> 87914
nh_t ượng</w> 87884
i_tr ưởng</w> 87849
H a 87807
a h</w> 87799
b ấm</w> 87796
B ái</w> 87786
s an</w> 87753
à m_ 87752
.. ..</w> 87749
m ệnh</w> 87733
is _ 87725
ao_t iếp</w> 87694
_ch ủ</w> 87684
đền_ bù</w> 87684
n ứt</w> 87675
c_th ù</w> 87675
cổ_ vũ</w> 87670
0 9 87660
S an_ 87651
r ồng</w> 87645
B ây_giờ</w> 87607
, 5</w> 87597
Z e 87589
nắng_ nóng</w> 87589
c_t ính</w> 87571
hiện_ hành</w> 87503
d ạo</w> 87489
Al - 87471
A M 87463
tổ _hợp</w> 87457
Hiệ u_trưởng</w> 87443
Pa kistan</w> 87434
mộ ng</w> 87424
công_ lập</w> 87419
/201 0</w> 87404
công_ nghệ_thông_tin</w> 87382
trước_ mắt</w> 87326
12 / 87292
_th uyết</w> 87290
ch ép</w> 87267
m ẫu_ 87255
tr a</w> 87246
ch e_ 87243
NH NN</w> 87243
Lị ch_sử</w> 87242
ạ i_d 87217
ar di 87217
t ứ_ 87203
FI FA</w> 87203
tính_ mạng</w> 87157
h ổ</w> 87135
Thời_ điểm</w> 87122
dài_ hạn</w> 87103
ấ p_th 87085
tr ục</w> 87078
u_th uyền</w> 87057
b ì</w> 87051
Th i</w> 87036
g ác</w> 86991
bắ t_tay</w> 86976
el and</w> 86970
Thu ỳ_ 86966
đạ n_ 86962
kiên_ quyết</w> 86954
0 5</w> 86932
khởi_ công</w> 86913
x ăm</w> 86847
tiế n_sĩ</w> 86811
5 9</w> 86809
v ong</w> 86782
h iể 86781
h am 86780
ad i 86779
tr ân_trọng</w> 86774
l ĩnh</w> 86757
t en 86748
phá n_ 86736
bá c_sỹ</w> 86730
th ường_trực</w> 86719
doanh_ số</w> 86648
Đ ạo_ 86641
ả_th i</w> 86635
B us 86628
máy_ móc</w> 86620
th ắc_mắc</w> 86619
9 2</w> 86603
T ờ</w> 86601
làm_ nên</w> 86591
1 1. 86590
ch án</w> 86580
nghị_ quyết</w> 86568
i Pad</w> 86536
kh ả_thi</w> 86494
cử a_s 86486
tr ầm_ 86477
nh am</w> 86475
b ận_ 86456
Tổng_ Bí_thư</w> 86401
B or 86392
m en 86366
c ua</w> 86321
Tr ì</w> 86319
i_ động</w> 86312
m ặ 86264
Quốc_ lộ</w> 86263
à_ nước</w> 86242
n_tho ại_d 86228
n_thoại_d i_động</w> 86219
J ack 86205
tr ợ 86204
H N 86150
t_t ình</w> 86113
rè n_luyện</w> 86101
ó _ 86096
3 0.000</w> 86071
Đồng_ Tháp</w> 86069
bá n_đảo</w> 86066
L am</w> 86016
x á</w> 86003
Á o</w> 85975
tr ọ</w> 85949
b ến_ 85938
Luật_ sư</w> 85931
b y</w> 85912
chi p</w> 85886
tin_ cậy</w> 85821
S o</w> 85820
w ar 85818
C - 85817
ú n</w> 85794
k iê 85774
i_th ức</w> 85760
gi ao_tiếp</w> 85757
Bảo_t àng</w> 85752
Liên_ bang</w> 85747
th ắt</w> 85731
trang_tr ại</w> 85722
Tr ăng</w> 85716
thần_ kinh</w> 85715
tiể u_th 85702
_nh à_nước</w> 85691
g as</w> 85666
P et 85658
Th iế 85652
vũ _ 85647
ar ia</w> 85646
ch ống_ 85632
n_t ạo</w> 85629
giữ_ gìn</w> 85577
ực_ rỡ</w> 85562
I S 85558
T ô_ 85552
K ông</w> 85547
T âm_ 85521
hoá_ đơn</w> 85497
đ ệ 85486
r ộn</w> 85476
7 7</w> 85456
đ òn</w> 85448
t a_ 85387
á c_thải</w> 85387
vui_ mừng</w> 85370
P os 85360
Qu á 85292
cách_th ức</w> 85280
vị t</w> 85260
b ê</w> 85216
lý _nhà_nước</w> 85206
úc_t iến</w> 85158
1 1 85146
Qu ỹ_ 85136
V y</w> 85128
Cali for 85109
d ẹp</w> 85054
C ương</w> 85034
iề m_ 85034
Mặt_tr ận</w> 85030
xuố ng_ 85029
S H 85023
cung_ ứng</w> 85021
G r 85010
l ử 84976
s an_ 84972
Hôm_ nay</w> 84915
giờ_ đây</w> 84891
vững_ chắc</w> 84864
dịch_ bệnh</w> 84824
Q uyên</w> 84775
M - 84764
ch ọ 84754
quy ền_ 84747
t ỏi</w> 84726
ứng_ cử_viên</w> 84670
h i</w> 84602
l ượng_ 84602
đàn_ bà</w> 84593
6 .000</w> 84586
l ong</w> 84573
c_s ạch</w> 84554
Đ iều_ 84538
Chỉ_ đạo</w> 84536
Ph im</w> 84457
_h ãi</w> 84451
Thu ận_ 84444
khôi_ phục</w> 84428
ch ẩn_đoán</w> 84418
4 0%</w> 84417
e a</w> 84383
ir e</w> 84382
Đắ k_L 84378
Tr iển_lãm</w> 84349
V an_ 84347
là ng_ 84319
K T</w> 84313
S ân_ 84254
kỹ _sư</w> 84253
Hiệp_ định</w> 84233
cảm_ hứng</w> 84196
iều_l ệ</w> 84169
điệ n_thoại_di_động</w> 84143
quản_ lý_nhà_nước</w> 84138
3 8 84117
thập_ kỷ</w> 84117
U A 84105
tàu_ sân_bay</w> 84095
T ường</w> 84083
ph ấn_ 84077
HĐ XX</w> 84075
ar y</w> 84008
r ực_rỡ</w> 84002
LH Q</w> 83915
bả n_l 83909
nh iếp_ 83899
ương_th ực</w> 83895
Tr ạm</w> 83866
nh ạc_ 83846
thắ ng_lợi</w> 83840
chủ_ nghĩa</w> 83827
_h át</w> 83807
sân_ chơi</w> 83793
Công_t ác</w> 83777
Đ ảo</w> 83758
đ ậu_ 83757
Kiên_ Giang</w> 83707
tain er</w> 83704
bê_t ông</w> 83703
T or 83673
n_th ị</w> 83655
m ờ</w> 83646
nh_tr áng</w> 83645
lạm_ dụng</w> 83628
H uy 83605
G ol 83605
chất_ liệu</w> 83604
s ướng</w> 83595
giám_ định</w> 83572
đường_ cao_tốc</w> 83569
_t ích</w> 83567
l ội</w> 83566
Yên_ Bái</w> 83562
ch ả</w> 83559
e mail</w> 83522
Manch ester 83521
Ch iến</w> 83501
lý_ giải</w> 83478
c_tr ách</w> 83428
Cuộ c_sống</w> 83420
al a</w> 83376
tu ần_ 83352
thu a_ 83344
hu ỷ_ 83299
8 0%</w> 83250
l ỡ</w> 83212
Đắk_L ắk</w> 83156
Ch e 83139
kho an</w> 83138
t ẩ 83119
C ro 83072
T ư_lệnh</w> 83059
Ngọc_ Hà</w> 83053
Mil an</w> 83018
sợ _hãi</w> 82984
Tuy ến</w> 82940
h ệ 82930
g ục</w> 82914
L ạng_ 82907
Nhà _hát</w> 82896
nhiệ t_tình</w> 82868
c ay</w> 82867
thân_ hình</w> 82819
ết_t ật</w> 82818
n âu</w> 82752
triệt_ để</w> 82715
C T</w> 82685
m_ cắp</w> 82675
v ạn</w> 82668
CE O</w> 82667
Wil li 82649
u_ d 82645
Hoàng_ Anh</w> 82636
đặ c_thù</w> 82615
đ ằng</w> 82614
bá c_ 82596
Ro oney</w> 82594
Ge or 82592
Tiế n_sĩ</w> 82588
C ăn_ 82574
kho ăn</w> 82574
C ảnh</w> 82543
kh ăn</w> 82524
th ông_t 82512
Công_ nghiệp</w> 82495
U - 82493
lắng_ nghe</w> 82434
V- League</w> 82420
T ất_nhiên</w> 82399
H i 82373
6 1</w> 82348
R am 82303
tiến_tr ình</w> 82303
L ập</w> 82297
U ber</w> 82273
ng ột</w> 82268
đ án</w> 82242
w w 82240
ăn_ khoăn</w> 82229
quan_ niệm</w> 82200
Đ ô</w> 82194
m on 82192
bả o 82183
7 1</w> 82131
l ây_ 82130
ạ _l 82117
ph anh</w> 82117
ho an</w> 82101
A - 82042
tiê m_ 82025
Câu_ chuyện</w> 82016
Mặt_ khác</w> 82008
a_ L 82004
đ oà 81996
khuy ết_tật</w> 81967
Tot te 81959
V ịnh</w> 81916
Tiến_ Dũng</w> 81910
M TT 81908
C ol 81897
g en</w> 81870
cao_ điểm</w> 81851
Gala xy</w> 81836
To à</w> 81835
kim_ ngạch</w> 81830
D ùng</w> 81825
O r 81825
u_l òng</w> 81784
Bả n_thân</w> 81779
Dân_ số</w> 81771
iểu_ số</w> 81753
B iển_ 81701
Thiế u_t 81692
lớ p_học</w> 81674
tuổ i_th 81671
el i 81650
l ặn</w> 81645
hệ_ điều_hành</w> 81641
é c</w> 81617
m ì</w> 81595
n_s ỹ</w> 81535
l ực_ 81533
nhiễ m_ 81532
Vlad im 81529
ris ti 81507
N iên</w> 81486
T ông</w> 81478
y c 81466
á p_th 81456
vòng_ loại</w> 81412
ấ c</w> 81406
ng ập_ 81399
w i 81364
hàm_ lượng</w> 81335
thự c_trạng</w> 81319
r y_ 81315
Đa_ khoa</w> 81309
b i</w> 81305
Nguyễn_ Thanh_ 81301
W ar 81248
Cầu_ Giấy</w> 81196
b í</w> 81181
at ar</w> 81121
đỉnh_ cao</w> 81097
r ác_thải</w> 81083
giải_ cứu</w> 81056
c ạn</w> 81055
K T 81049
d ồn</w> 80998
Toky o</w> 80997
thành_t ựu</w> 80949
số t_ 80948
er ia</w> 80897
đánh_ bắt</w> 80844
kim_ loại</w> 80841
m a_ 80833
No kia</w> 80832
đồng_t ình</w> 80828
v an</w> 80811
bur g</w> 80772
ng_t ay</w> 80749
ngộ_ độc</w> 80739
Đảng_ bộ</w> 80733
V er 80731
đột_ ngột</w> 80681
ch ăng</w> 80673
b ấy_ 80643
C ây</w> 80598
C S</w> 80587
con tainer</w> 80583
t ôn</w> 80504
CS ĐT</w> 80487
m_th iểu</w> 80477
C ảm_ 80472
p l 80422
sát_ hại</w> 80400
ar i</w> 80368
Q . 80363
Đại_ sứ_quán</w> 80362
tôn_ giáo</w> 80358
6 9</w> 80347
s ạc</w> 80340
S. TS</w> 80319
_L iêm</w> 80292
Qu ả</w> 80280
v ượ 80196
tr ọn</w> 80194
số_ phận</w> 80162
Mis s_ 80158
t ầ 80132
K ur 80120
Nộ i_dung</w> 80109
ng_t ử</w> 80108
đ ắng</w> 80032
vị nh</w> 80030
ao_t ặng</w> 80029
đầu_ mối</w> 80013
M ed 79969
m ị 79957
tr ích</w> 79947
tiền_ mặt</w> 79944
nóng_ bỏng</w> 79929
Inde x</w> 79920
chất_ vấn</w> 79902
y_ mà</w> 79887
C ông_th 79867
đổ_ bộ</w> 79853
8 1</w> 79814
k er</w> 79811
u_th ế</w> 79766
G et 79759
B KS</w> 79739
ch ẳng_hạn</w> 79733
Ex p 79732
kh áng</w> 79713
C âu</w> 79707
ne y</w> 79701
s t</w> 79683
n o</w> 79667
hành_ lang</w> 79644
tôn_ vinh</w> 79641
Califor nia</w> 79623
cân_ đối</w> 79612
truy_t ố</w> 79608
nướ c_sạch</w> 79605
Trấn_ Thành</w> 79531
s ỹ</w> 79512
vu ông</w> 79482
th ai_ 79463
Hoàn_ Kiếm</w> 79460
cực_ đoan</w> 79434
đ ắt_ 79419
t in 79410
ắm_ bắt</w> 79379
đặc_ điểm</w> 79375
Tiền_ Giang</w> 79374
bận_ rộn</w> 79373
v ội</w> 79365
N ông</w> 79356
bình_ đẳng</w> 79335
x ôi</w> 79321
Quy_ hoạch</w> 79317
b ăn_khoăn</w> 79266
thời_ đại</w> 79253
M P</w> 79252
ành_ đai</w> 79245
Ma il</w> 79243
Ngh ệ 79212
thực_ hành</w> 79203
T ương_tự</w> 79176
U Y 79155
9 0%</w> 79146
trung_ vệ</w> 79141
Lý _do</w> 79119
7 6</w> 79088
ê_ b 79077
H ọ 79064
es s</w> 79051
Th ảo_ 79026
Bá _ 78981
S ou 78974
Hội_ An</w> 78972
b iệt_ 78945
dụng_ cụ</w> 78944
T ại_ 78943
d ao_động</w> 78931
co in</w> 78894
N N 78889
t ụ 78872
w ood</w> 78852
Đ ào</w> 78847
giả m_thiểu</w> 78800
/201 1</w> 78784
H am 78781
V .</w> 78778
ti s</w> 78763
đấ u_thầu</w> 78704
Vladim ir 78684
trái_ phiếu</w> 78678
nhà_ cửa</w> 78673
tr iều_ 78671
tác_ chiến</w> 78662
n_th ảo</w> 78650
có_ khi</w> 78622
xâm_ nhập</w> 78613
c ống</w> 78563
d ư</w> 78504
D I</w> 78504
tiền_l ương</w> 78473
Châu_ Âu</w> 78462
l òng_ 78449
mật_ độ</w> 78449
huyết_ áp</w> 78444
cả n_trở</w> 78393
ò n_ 78385
s ạch_ 78373
M uốn</w> 78345
co r 78341
xuố ng_cấp</w> 78267
Jo ng- 78264
dự _trữ</w> 78239
th ằng</w> 78211
T ình</w> 78200
o_l éo</w> 78200
L oại</w> 78185
cô _dâu</w> 78169
Ju ven 78143
b ộc_ 78127
tr ú 78110
N ơi</w> 78083
ngh iêng</w> 78072
X - 78053
Nguyễn_ Minh_ 78053
Ph òng_ 78047
Ne y 78047
8 0 78036
Hong_ Kong</w> 78036
tổng_ kết</w> 78034
nh ậu</w> 78024
Kh anh</w> 77993
kho ác</w> 77975
d ri 77936
_nh ật</w> 77932
tuy ể 77928
M ụ 77895
l iều</w> 77878
ắ n_tin</w> 77878
W h 77869
ậ p 77861
đồ_ ăn</w> 77832
Ch ung_ 77829
đề_ cử</w> 77823
tr ao_tặng</w> 77802
cố_ định</w> 77765
v ướng</w> 77763
ch ậu</w> 77746
Gala xy_ 77695
n_t oàn</w> 77693
học_ phí</w> 77689
ững_ ai</w> 77649
AF F</w> 77628
ng ộ</w> 77606
độc_ hại</w> 77592
tình_ nguyện</w> 77578
199 5</w> 77576
dự _t 77574
ươ m</w> 77520
T ỉnh</w> 77501
si nh_thái</w> 77500
t_tr ội</w> 77486
m bia</w> 77478
C ri 77443
C linton</w> 77435
S ẽ</w> 77410
S V</w> 77405
cửa_ khẩu</w> 77356
Gu ardi 77352
1- 2</w> 77342
t ang_ 77336
T ín</w> 77327
di_ cư</w> 77304
í u</w> 77294
khé o_léo</w> 77294
nổi_d ậy</w> 77285
A D 77232
F PT</w> 77222
For d</w> 77217
thậ n_trọng</w> 77212
vượ t_trội</w> 77184
d àn_ 77175
C lip</w> 77170
F u 77146
nhân_t ạo</w> 77134
Le e_ 77127
ng_t ượng</w> 77122
_s ở_hữu</w> 77117
ám_ ảnh</w> 77113
T in_ 77063
Pa ul 77043
S G 77000
H O 76998
W i 76932
sáng_ kiến</w> 76896
c ành</w> 76884
ng ang_ 76882
D u_ 76880
xuất_ xứ</w> 76879
1 .0 76872
D on 76852
hải_ quan</w> 76834
Nh ơn</w> 76825
ng ưỡng_ 76806
ặ m</w> 76797
gi ọt</w> 76794
VO V</w> 76791
ụ a</w> 76790
Lạng_ Sơn</w> 76756
s ử</w> 76730
s ơ</w> 76714
phòng_ ngừa</w> 76701
M ẫu</w> 76699
G ran 76681
Totte nham</w> 76676
j e 76630
bì nh_t 76604
V ừa</w> 76601
h ương_vị</w> 76595
ngăn_ ngừa</w> 76567
Tại_ sao</w> 76564
k iểm</w> 76563
Công_ Vinh</w> 76547
Hưng_ Yên</w> 76541
tham_ vọng</w> 76537
t ủ</w> 76534
e - 76529
le ti 76520
b ởi_vì</w> 76512
D ù 76511
Qu ỹ</w> 76506
Ngh ĩ 76505
cứ ng_ 76499
giá _thành</w> 76496
Vic tor 76496
V iện_ 76477
R ị 76461
B ị_ 76441
l ân_ 76395
Ven ez 76395
h ở</w> 76390
MTT Q</w> 76379
gi ế 76366
ngoạ i_tệ</w> 76366
Kh ang</w> 76357
a nh_tr 76351
d ữ</w> 76301
Tr i 76279
M à</w> 76261
khởi_ đầu</w> 76258
b ắp</w> 76257
_kh ai</w> 76253
b ar</w> 76233
Ney mar</w> 76233
Tết_ Nguyên_ 76230
r áp</w> 76213
iến_ pháp</w> 76200
H ân</w> 76194
đ ựng</w> 76147
đ úc</w> 76076
Quá _trình</w> 76056
nh ắn_tin</w> 76035
199 8</w> 76029
L iêu</w> 76028
T. Ư</w> 76008
bản_l ĩnh</w> 76002
Bảo_ vệ</w> 75996
ph ơi</w> 75984
mỹ_ phẩm</w> 75967
and al</w> 75955
h ùng_ 75942
Từ _Liêm</w> 75933
Tr ung_t 75914
c úm</w> 75910
tr i_ 75904
V ụ_việc</w> 75900
r ao</w> 75885
phi m_tr 75881
sá p_ 75855
hồi_ phục</w> 75847
T ử</w> 75845
v ội_ 75788
B re 75731
Tây_ Bắc</w> 75705
thăm_ dò</w> 75702
B ức</w> 75678
O p 75630
n ấu_ 75621
không_ những</w> 75604
gh é</w> 75546
í ch_th 75538
Bà_ Rị 75530
ĩ_ quan</w> 75529
tr ục_ 75524
giải_t oả</w> 75493
s ắ 75463
ỗ ng_ 75460
n úi_ 75433
im_ lặng</w> 75407
s el 75378
Juven tus</w> 75345
bác_ bỏ</w> 75301
D or 75298
s a_ 75289
khu_ phố</w> 75270
Th ông</w> 75257
suy_ giảm</w> 75230
I M 75197
Dự_ báo</w> 75163
Ng ôi</w> 75156
v ã</w> 75153
điều_ hoà</w> 75136
Ứ ng_ 75130
t ệ</w> 75128
óc_ dáng</w> 75128
Đ ống_ 75125
r ào_ 75088
Uỷ_ ban_ 75071
ì a_ 75060
tháo_ gỡ</w> 75056
Thuỵ_S ĩ</w> 75049
E uro</w> 75047
Tr e</w> 75047
b ất_t 75033
m ồi</w> 75026
id e</w> 75012
r ủ</w> 75003
Ban_ đầu</w> 74982
u ela</w> 74975
c ắn</w> 74951
ph ím</w> 74951
7 3</w> 74921
ũ a</w> 74918
VN PT</w> 74918
v ớt</w> 74866
Diễ n_đàn</w> 74862
Th iện_ 74850
b a_ 74844
T iêu_ 74844
kha i_tr 74832
k ẻ 74819
F o 74817
đ ống</w> 74801
Ư T</w> 74793
B lo 74772
Cá ch_ 74770
trộ m_cắp</w> 74770
K ỹ_thuật</w> 74758
8 6</w> 74741
nghị _sĩ</w> 74708
Thanh_ niên</w> 74680
l ận</w> 74677
t áo_ 74639
rad ar</w> 74621
C ầ 74603
Hộ i_thảo</w> 74579
ra g 74511
ic k</w> 74508
Giải_th ưởng</w> 74428
199 7</w> 74411
B ạc_ 74385
Hol ly 74364
đau_ đầu</w> 74334
km ²</w> 74332
đặc_s ản</w> 74317
sơ _t 74314
lã nh</w> 74235
cửa_s ổ</w> 74234
200 .000</w> 74227
nhà _tr 74226
al e</w> 74191
t es</w> 74179
t iệ 74133
g ây_ 74128
K on_ 74109
x ứng</w> 74100
gh t</w> 74053
_l oại</w> 74050
0 3</w> 74043
197 5</w> 74039
A S</w> 74038
lu i</w> 74030
n ã</w> 74012
K iệt</w> 74009
ch ay</w> 73999
8 2</w> 73990
b iên_t 73986
L ời</w> 73984
mưa_ rào</w> 73980
kho ang</w> 73978
phản_ hồi</w> 73977
Chính_ quyền</w> 73931
Qu ỷ</w> 73927
v ặt</w> 73923
tỉ_ số</w> 73916
th ụ 73909
Ph ật_ 73902
kinh_ hoàng</w> 73901
50 0.000</w> 73900
đ ê</w> 73864
M ường_ 73832
đồ ng_th 73790
thị_ phần</w> 73784
T ới</w> 73778
H ạ</w> 73769
Ne t</w> 73756
tr ông_ 73752
D el 73720
uố n_ 73678
p s</w> 73675
chức_ danh</w> 73665
es ter</w> 73658
b ưởi</w> 73654
b ể</w> 73595
u ật_ 73591
Venez uela</w> 73555
lượng_ vũ_trang</w> 73549
M ạnh</w> 73529
Á nh_ 73476
T ự</w> 73462
_h ôi</w> 73458
S un 73451
sáp_ nhập</w> 73448
ò _r 73432
chủ _sở_hữu</w> 73432
7 9</w> 73419
danh_t iếng</w> 73386
gó i_thầu</w> 73380
B ảng</w> 73338
L y 73331
t ưở 73315
b ỏ 73315
kỳ _lạ</w> 73311
ro bot</w> 73307
T ạ 73304
Đ iền</w> 73295
C ặp</w> 73265
k ar 73251
199 2</w> 73249
tranh_ luận</w> 73243
thượng_ đỉnh</w> 73195
t an_ 73179
tự a</w> 73171
k ép</w> 73158
al and</w> 73157
Nam_ Phi</w> 73154
x á 73146
lạc_ quan</w> 73141
S áu</w> 73134
en ko</w> 73098
trợ_ giúp</w> 73070
B ol 73066
_th ần</w> 73063
chân_th ành</w> 73038
Li b 73018
Thanh_ Niên</w> 73001
tàu_ chiến</w> 72991
l ương_thực</w> 72989
Vĩnh_ Phúc</w> 72980
h ố</w> 72976
Th iện</w> 72969
S a_ 72957
f acebook</w> 72932
khá i_ 72921
m ơ_ 72898
thương_ vụ</w> 72893
T oán</w> 72890
ch ôn</w> 72885
bước_ đi</w> 72873
Đống_ Đa</w> 72852
7 8</w> 72823
ô n_l 72771
Tr iều</w> 72744
Gi ao_ 72729
phân_ giải</w> 72719
ch ê</w> 72718
199 3</w> 72693
giải_ ngân</w> 72679
d ỡ</w> 72664
V n 72650
Nhà _th 72643
nghi_ vấn</w> 72548
Phú_ Quốc</w> 72510
tứ_ kết</w> 72504
NS ƯT</w> 72423
Giá ng_ 72402
m òn</w> 72397
en_ ngợi</w> 72390
ướ p_ 72379
cao_ đẳng</w> 72323
E ri 72313
nh ường</w> 72308
C O 72296
Liên_ Hợp_ 72280
đồ _chơi</w> 72251
truy ện</w> 72244
b ã 72225
Se ou 72204
hạ_ cánh</w> 72202
A p 72201
Tr ẻ</w> 72201
t _thể</w> 72199
8 3</w> 72190
ởi_ vậy</w> 72186
tranh_ cử</w> 72179
Hồng_ Kông</w> 72128
tiện_ ích</w> 72122
Đ ồn</w> 72094
M I 72085
đình_ đám</w> 72074
A ma 72070
chọ n_l 72057
phân_ công</w> 71999
M B</w> 71965
Trường_ Giang</w> 71941
m ỹ 71933
đặt_ hàng</w> 71906
Thị _trường</w> 71900
đố c_ 71889
199 4</w> 71876
bùng_ nổ</w> 71848
St ar 71843
Pal est 71838
gay_ gắt</w> 71837
trí _tuệ</w> 71836
Đ iện</w> 71834
C B 71815
199 6</w> 71796
t u_ 71781
đảm_ nhận</w> 71776
V ợ</w> 71771
kh en_ngợi</w> 71726
Hà_ Nam</w> 71723
đồng_ loạt</w> 71715
bình_t ĩnh</w> 71686
N a_ 71664
lân_ cận</w> 71654
d ương_ 71648
hiể n_thị</w> 71643
ồn_ ào</w> 71639
d ại</w> 71625
nhập_ cư</w> 71614
d y</w> 71610
c us</w> 71599
Ch ẳng_hạn</w> 71588
Dịch_ vụ</w> 71572
hào_ hứng</w> 71538
E ver 71524
i_d anh</w> 71513
ta r</w> 71505
A si 71497
tự_ nguyện</w> 71495
l ộc</w> 71493
R T</w> 71471
x úc_tiến</w> 71463
Hoàng_ Sa</w> 71449
l uy 71426
ngày_ một</w> 71421
30 / 71329
chuyển_ biến</w> 71311
tiền_ bạc</w> 71299
t y_ 71298
m ặc_ 71281
J or 71276
t ị_ 71264
báo_ động</w> 71225
v óc_dáng</w> 71197
í n_ 71185
th ái</w> 71176
_l ĩnh</w> 71176
v ắng_ 71161
d er</w> 71147
ò_m ò</w> 71143
thầy_ cô</w> 71114
n ắm_bắt</w> 71109
t ạm_ 71105
Tr ời</w> 71102
it coin</w> 71084
kiể u_ 71077
Ngọc_ Trinh</w> 71071
đặc_s ắc</w> 71043
T A</w> 71041
mu n 71001
H TX</w> 70972
SL NA</w> 70966
sở _thích</w> 70941
em_ gái</w> 70927
ườ i_ 70918
ài_ đặt</w> 70918
ph u</w> 70906
D .</w> 70884
i_d ương</w> 70869
mong_ đợi</w> 70860
Mụ c_tiêu</w> 70855
h ận</w> 70833
bề_ mặt</w> 70823
chi a_ 70816
a_h ạn</w> 70808
so i</w> 70802
Tì nh_trạng</w> 70801
3 D</w> 70799
thu_ mua</w> 70783
kh iêu_ 70780
B uổi</w> 70749
ư_l iệu</w> 70730
S iêu</w> 70724
Đ à</w> 70710
_l ạnh</w> 70705
ngưỡng_ mộ</w> 70700
_nh ớ</w> 70680
Đ ộ_ 70665
L ịch</w> 70651
bất_ ổn</w> 70610
bắt_ cóc</w> 70606
bệnh_t ật</w> 70603
j o 70600
K CN</w> 70594
cấp_ uỷ</w> 70581
S ố 70570
mã _lực</w> 70545
B óng_ 70533
L ou 70531
0 4</w> 70515
tị_ nạn</w> 70512
h ữ 70507
t ia</w> 70479
7 4</w> 70454
Hồ_ Ngọc_Hà</w> 70450
Eu ro 70442
Li ga</w> 70440
nước_ biển</w> 70409
Palest ine</w> 70405
_ K 70399
s ao_ 70363
Viet nam 70361
má i_t 70353
mái_t óc</w> 70347
A C</w> 70323
L ượng</w> 70268
tưở ng_tượng</w> 70245
Nh ư_ 70242
đạ c</w> 70238
duy ên_ 70187
s tr 70160
u ỵ</w> 70158
lậ p 70154
k ề</w> 70121
dị u</w> 70108
e d_ 70105
ôn_l ậu</w> 70093
A D</w> 70079
E r 70069
bài_t ập</w> 70062
n_tr ưởng</w> 70046
8 4</w> 70044
C os 70034
bước_ đầu</w> 70024
khá t_ 70013
tiền_t ệ</w> 70009
8 9</w> 70007
ch iêu_ 70001
ru ồi</w> 69999
hết_ mình</w> 69983
b ra 69976
W at 69974
G - 69965
é p_ 69943
hàng_ hải</w> 69933
đất_ liền</w> 69894
u_t ập</w> 69891
n et 69874
C A</w> 69849
Q atar</w> 69849
gian_ lận</w> 69796
_C ity</w> 69795
Khu ê</w> 69791
phụ_ kiện</w> 69779
cảnh_ quan</w> 69746
s ăn_ 69736
ph ấn</w> 69690
l uộc</w> 69688
gi a_hạn</w> 69682
áng_ gi 69665
tì nh_t 69651
liệt_ sĩ</w> 69636
ay a</w> 69614
Cử u_ 69612
bảo_t àng</w> 69607
cảm_ biến</w> 69566
g ol 69557
mồ _hôi</w> 69542
để _ý</w> 69512
L ED</w> 69508
n_đ iều_lệ</w> 69487
ngoại_ ngữ</w> 69475
c ốc</w> 69457
L ai_ 69454
Qu ả 69418
T ou 69384
nhà_th ờ</w> 69366
V ẫn</w> 69363
rượ u_ 69335
d ũng_ 69322
trợ_ cấp</w> 69318
tuy ết</w> 69302
Đ ô 69298
n_t ính</w> 69264
z on</w> 69263
m ệt</w> 69254
Th ân</w> 69247
phân_ loại</w> 69245
199 1</w> 69237
Gi ữa</w> 69230
Đại_ biểu</w> 69228
M el 69224
ko v</w> 69223
ưởng_ ứng</w> 69204
s ườn</w> 69171
h ấp_th 69120
t ni 69120
M us 69110
từ _chức</w> 69091
M a_ 69080
m á</w> 69039
Mer c 69035
s ữ 69017
_P u 69008
e_ S 68960
kê _khai</w> 68952
thường_ niên</w> 68939
tư _thế</w> 68939
đạ m</w> 68911
6 0%</w> 68910
Th i_ 68903
C ảng</w> 68869
iễ u</w> 68868
/201 3</w> 68823
n ạ</w> 68821
h am</w> 68817
đồng_th uận</w> 68815
L ục_ 68814
Ki ev</w> 68812
ch âm</w> 68809
nh ạt</w> 68801
so ạn</w> 68781
đ un</w> 68777
D is 68758
ườ n_ 68749
I m 68735
o ái</w> 68720
bu s</w> 68690
Ho ạt_ 68686
H ọc</w> 68679
y_tr ồng</w> 68675
l ưỡi</w> 68657
t áo</w> 68636
ễ _ 68611
triệ u_tập</w> 68611
Sản_ phẩm</w> 68587
qua_ lại</w> 68503
tỷ_ giá</w> 68490
S ức_ 68487
Th ượng</w> 68437
tự_t ử</w> 68407
t ò_mò</w> 68393
giớ i_tính</w> 68378
tì nh_th 68356
x ơ</w> 68349
giả _ 68304
b ẫy</w> 68286
u_đ ựng</w> 68279
H uyện</w> 68278
Gra b</w> 68271
chu i</w> 68268
a do 68234
B ản_ 68201
nghĩa_ là</w> 68199
th ủng</w> 68188
hoà i_ 68174
chào_ đón</w> 68163
_l ập</w> 68160
w s</w> 68152
15 %</w> 68128
ề m_ 68120
T ên</w> 68111
Bar ack_ 68097
Th ượng_t 68086
u_tr ời</w> 68055
i OS</w> 68053
bến_ xe</w> 68052
ri d 68047
Ch ương</w> 68042
u_h iệu</w> 68029
bu ôn_lậu</w> 68028
f f</w> 68023
kh ép</w> 67994
ngôn_ viên</w> 67993
s ẻ</w> 67951
đẹp_ mắt</w> 67930
Đ ánh_ 67927
hình_ phạt</w> 67917
v õ</w> 67892
Tuy ết</w> 67887
C i 67877
chị u_đựng</w> 67857
n àn</w> 67832
S ar 67824
T Q</w> 67817
ò _ 67787
C D</w> 67765
x ào</w> 67764
th ấm</w> 67759
vậ t_thể</w> 67736
Ph ú 67701
Barack_ Obama</w> 67689
ngành_ nghề</w> 67671
CN N</w> 67666
D anh</w> 67658
l am</w> 67643
Ch ồng</w> 67640
L G</w> 67624
1. 500</w> 67613
â n_tr 67603
i t</w> 67587
chu ông</w> 67576
Sự_ việc</w> 67555
Liên_Hợp_ Quốc</w> 67536
x à_ 67535
Tu m</w> 67530
giế ng</w> 67530
yêu_ mến</w> 67521
b ỗng</w> 67515
nh ảy_ 67497
hoạ _sĩ</w> 67454
câ y_trồng</w> 67415
Đối_t ượng</w> 67414
ch o_dù</w> 67413
Seou l</w> 67413
T el 67401
Th ăng</w> 67400
tự _chủ</w> 67384
ộ c_th 67353
ộc_th iểu_số</w> 67351
vố n_điều_lệ</w> 67341
an o_ 67305
Ph ố</w> 67301
l ồng</w> 67300
d ải</w> 67299
lớ n_t 67295
n_t iện</w> 67286
dầu_ khí</w> 67275
T B 67269
_d ẫn</w> 67269
Ă n</w> 67210
L . 67209
Toàn_ bộ</w> 67200
dạy_ học</w> 67196
tiềm_ ẩn</w> 67189
S I 67156
th ăng_ 67149
gia_ cầm</w> 67145
c al 67129
ỡ _ng 67129
15 / 67121
d ư 67105
E U 67087
t ất_ 67081
nh ọn</w> 67066
g o</w> 67032
KS ND</w> 67027
h ung_ 66988
_h ấp</w> 66984
tập_ hợp</w> 66982
quy ển</w> 66979
Th ời</w> 66974
l ược</w> 66947
g ừng</w> 66947
Tu ổi_ 66946
hoang_ mang</w> 66945
Tết_Nguyên_ đán</w> 66915
L am_ 66893
TP P</w> 66889
lã o</w> 66878
ộ n_ 66876
Biên_ phòng</w> 66866
th ưa</w> 66864
b ỗng_ 66851
hiệu_ ứng</w> 66835
Không_ những</w> 66814
Công_ viên</w> 66797
í _h 66796
Tu ần_ 66792
N LĐ</w> 66789
phân_ bón</w> 66784
su y</w> 66779
G P</w> 66772
nhà_th iết_kế</w> 66766
N a 66760
Đ ỗ 66754
198 0</w> 66737
r in 66735
B àn</w> 66725
x ám</w> 66725
v í</w> 66715
_l ưỡng</w> 66688
C ố_ 66676
Điệ n_lực</w> 66666
lưu_ giữ</w> 66651
Daily_ Mail</w> 66581
Sóc_ Trăng</w> 66557
U ni 66556
ương_t ác</w> 66555
hài_ hoà</w> 66549
nh ững_ai</w> 66537
Son y</w> 66534
nuô i_dưỡng</w> 66529
H al 66520
tự_ xưng</w> 66497
u_t ối</w> 66485
_l ượng</w> 66475
T ối_ 66466
ù a_ 66453
ng oà 66434
nh ặt</w> 66427
cá n</w> 66415
A n_toàn</w> 66411
S .</w> 66407
trợ _lý</w> 66403
se t</w> 66396
nảy_ sinh</w> 66382
r ay</w> 66369
Ng ành</w> 66363
mới_ mẻ</w> 66362
K en 66355
hộ p_ 66351
Công_th ương</w> 66350
thương_t ích</w> 66340
xo á_ 66337
ắc_ rối</w> 66333
tuyể n_thủ</w> 66328
d ày_ 66305
B ệnh</w> 66303
8 7</w> 66293
ngh èo_ 66248
Bá ch_ 66239
vinh_ dự</w> 66235
ải_ rác</w> 66219
_l uận</w> 66217
B el 66209
ti v 66199
Tr ạch</w> 66198
c an_ 66195
Đ ạo</w> 66162
ỉ nh_th 66159
thư_ giãn</w> 66136
Chiế n_tranh</w> 66131
vật_ dụng</w> 66126
V ị</w> 66124
lên_ đường</w> 66120
1, 2</w> 66089
Máy_ bay</w> 66075
25 %</w> 66069
k e_ 66055
B MW</w> 66043
V òng</w> 66032
P SG</w> 66024
b iển_ 66016
B .</w> 66014
c ài_đặt</w> 66010
ch óng_ 65998
_th ai</w> 65998
phần_ hoá</w> 65988
m ía</w> 65974
dân_t ộc_thiểu_số</w> 65966
hoà nh_tráng</w> 65960
độ_ phân_giải</w> 65916
ỉnh_th oảng</w> 65901
Mỹ_ Đình</w> 65899
thất_ nghiệp</w> 65893
m er</w> 65869
At leti 65859
Bị_ cáo</w> 65840
r ải_rác</w> 65836
M ạch</w> 65825
lu ân_ 65815
o áng</w> 65794
đồng_ bằng</w> 65788
w er</w> 65778
khai_tr ương</w> 65759
ợ n</w> 65755
r an</w> 65754
t ế 65732
phê_ bình</w> 65729
trọ n_vẹn</w> 65683
Sử _dụng</w> 65681
B BC</w> 65659
p ar 65658
b al 65648
Chuyên_ gia</w> 65647
chăm_ lo</w> 65639
ỷ_l ợi</w> 65607
Kon_ Tum</w> 65581
đối_ xử</w> 65578
th ể</w> 65577
Bạc_ Liêu</w> 65548
lên_ án</w> 65528
giao_ hữu</w> 65527
F B 65514
m ắc_ 65508
ngắn_ hạn</w> 65507
bắt_ gặp</w> 65494
ò_r ỉ</w> 65487
độc_ quyền</w> 65445
L àng</w> 65434
ấm_ áp</w> 65418
c ồn</w> 65414
v ứt</w> 65407
h à</w> 65385
nhà_ cung_cấp</w> 65384
In st 65376
ề ng</w> 65368
L iệu</w> 65367
Nam_ Bộ</w> 65366
M TV</w> 65359
hô _hấp</w> 65338
đoàn_ viên</w> 65324
Hoạt_ động</w> 65319
H ai_ 65313
Ph út</w> 65309
Thu ế</w> 65292
k è</w> 65238
I C</w> 65222
v án</w> 65221
Hoàng_ Văn_ 65184
k ẹo</w> 65182
V i</w> 65154
tiểu_th uyết</w> 65129
C at 65127
iể n_tr 65122
chứng_ cứ</w> 65109
Bến_ Tre</w> 65109
Nh i_ 65081
T ấn</w> 65077
phản_ b 65074
b ùn</w> 65062
Đ oạn</w> 65033
T ừng</w> 65027
ti m_ 65010
đốc_ điều_hành</w> 64999
a_h ồng</w> 64996
F DI</w> 64995
h ư</w> 64992
In f 64990
_th ực</w> 64979
ố ng_tr 64959
_th uật_ 64945
M ấy</w> 64944
Vĩnh_ Long</w> 64938
M ad 64920
bất_ hợp_pháp</w> 64917
M ôn</w> 64867
AT GT</w> 64866
Tổng_ Công_ty</w> 64864
w or 64849
On line</w> 64843
os _ 64819
K ết_thúc</w> 64815
nh ện</w> 64811
tồ i_tệ</w> 64795
đả o_ 64765
cấ m_ 64755
k i</w> 64749
do ạ</w> 64743
_ch u 64718
bài_t oán</w> 64704
Hiệ n_trường</w> 64687
triển_ vọng</w> 64682
ử i_ 64628
v ượng</w> 64624
điều_ động</w> 64614
Kh ả_ 64607
La_ Liga</w> 64599
r òng</w> 64595
công_ sức</w> 64589
B iết</w> 64585
B ác_ 64582
Phạm_ Thị_ 64571
T M 64568
tiê u_h 64568
áp_ đặt</w> 64562
B ur 64552
Ze aland</w> 64532
chữ_ ký</w> 64531
nh ỏ_ 64524
tim_ mạch</w> 64511
v ân</w> 64497
ô - 64497
ch ăm</w> 64496
đạn_ đạo</w> 64481
sc andal</w> 64478
hoàn_ chỉnh</w> 64450
ường_ chứng_khoán</w> 64446
Vĩnh_ Hưng</w> 64423
lử a_ 64404
B ăng</w> 64402
Lib ya</w> 64402
_ số</w> 64388
n én</w> 64379
l ốc</w> 64366
to án</w> 64360
ng ưng</w> 64357
Joh n 64354
Sau di_ 64301
T D 64284
yếu_ kém</w> 64264
Colo mbia</w> 64251
T y 64243
ngo an</w> 64224
an_t oả</w> 64196
As sa 64182
nhà_th ơ</w> 64176
t_t iền</w> 64165
ch a_ 64136
M ón</w> 64121
đấ u_trường</w> 64095
er i</w> 64091
0 8</w> 64087
J on 64077
T ự 64072
Th ạch</w> 64069
S k 64066
cổ_ phần_hoá</w> 64058
S ir 64048
h im 64027
n i</w> 64022
t ù_ 64003
Ri ch 63969
_t ừ</w> 63959
d ở</w> 63957
Ser i 63949
l ật</w> 63943
r ắc_rối</w> 63926
m ũ</w> 63905
w n</w> 63886
_Pu tin</w> 63885
Ch ấp_ 63861
S ho 63860
gi àn</w> 63858
t ương_tác</w> 63851
Châu_ Á</w> 63848
Điện_ Biên</w> 63847
O ld_ 63830
Tr ưng</w> 63804
c ọc</w> 63803
2 2 63798
Nguyễn_ Đình_ 63793
thà nh_th 63759
iềm_ chế</w> 63746
lực_ lượng_vũ_trang</w> 63746
a _trang</w> 63729
quố c_t 63729
r am 63722
n ắp</w> 63691
l ôi_ 63683
qu ay_ 63674
ầ u_trời</w> 63673
đ ếm</w> 63669
cố_ vấn</w> 63669
ch iên</w> 63660
Hoàng_ Mai</w> 63628
c ộ 63627
SC O</w> 63620
m ùng</w> 63619
sụ t_ 63619
c_th ẩm</w> 63589
Đắ k_ 63544
th ủ_tướng</w> 63541
gi a_s 63520
A li 63519
Th ức</w> 63490
pp o</w> 63455
New_ Zealand</w> 63448
bản_ chất</w> 63443
9 1</w> 63430
xuất_ huyết</w> 63425
ờ n</w> 63398
l ap 63393
uni ch</w> 63372
t ám</w> 63357
l ộn</w> 63353
m ươi</w> 63352
giản_ dị</w> 63346
tiếp_th u</w> 63338
en o 63327
_th ừa</w> 63326
Vladimir _Putin</w> 63322
p or 63300
ưa_ chuộng</w> 63291
kho ác_ 63286
Dù _vậy</w> 63283
10 , 63257
nghiệ t</w> 63247
r e</w> 63240
3 6, 63229
2- 1</w> 63226
bản_ án</w> 63218
Chỉ _huy</w> 63210
công_ vụ</w> 63195
x ông</w> 63187
_chu ẩn</w> 63177
V ạn_ 63159
G Đ</w> 63148
h ụt</w> 63146
giá n_đ 63145
kh iếp</w> 63127
thu ỷ</w> 63117
D u</w> 63116
sạch_ sẽ</w> 63115
b on</w> 63099
gi ết_ 63097
kiể m_toán</w> 63091
chủ _ch 63076
điề u_t 63074
Kho ản</w> 63065
k iềm_chế</w> 63051
h é</w> 63050
Tiế p_tục</w> 63038
lên_ ngôi</w> 63028
đè n_ 62971
s ét</w> 62952
_th ể 62945
thoả_ mãn</w> 62945
nhân_ đạo</w> 62933
ao _tr 62918
ol y 62915
Đồng_ chí</w> 62904
đ ắn</w> 62883
thể _loại</w> 62880
r ò_rỉ</w> 62878
H D 62874
xâm_ hại</w> 62868
X i 62857
L an 62811
CT CP</w> 62805
T ám</w> 62779
l an_toả</w> 62772
gợi_ ý</w> 62766
C . 62739
e th 62728
7 .000</w> 62726
t_th anh</w> 62721
c e_ 62717
mô i_ 62716
nghệ _nhân</w> 62713
3 G</w> 62703
ngăn_ cản</w> 62702
25 - 62683
dung_ lượng</w> 62660
th ang</w> 62623
Le e</w> 62602
khoác_ áo</w> 62582
th ao_t 62553
thủ_ công</w> 62551
tha nh_th 62544
sơ _sinh</w> 62535
trầ m_trọng</w> 62526
mưa_ lũ</w> 62517
S P 62512
thuậ n_tiện</w> 62503
l e_ 62501
lửa_ đạn_đạo</w> 62489
l i</w> 62487
Saudi_ Ara 62474
ó t_ 62451
Thanh_ Xuân</w> 62447
d ược_ 62433
Hoàng_ gia</w> 62433
l au</w> 62432
sinh_ vật</w> 62425
thể _lực</w> 62417
Mo bi 62412
V ùng</w> 62388
khám_ chữa</w> 62384
m_tr ai</w> 62381
e x 62380
C ựu</w> 62360
phim_tr uyền_hình</w> 62328
đột_ biến</w> 62322
qu ái</w> 62313
tho áng</w> 62308
le t</w> 62298
b ề</w> 62292
điều_ khoản</w> 62275
B ảy</w> 62226
Gi ó</w> 62226
n a 62218
h ưởng_ứng</w> 62217
khám_ nghiệm</w> 62214
gh ét</w> 62210
Bl ack 62210
S D 62203
Ph ủ</w> 62196
Bình_ Phước</w> 62182
chất_ độc</w> 62171
t ù 62168
ar d_ 62166
gắn_ kết</w> 62155
v ô</w> 62152
lâu_ nay</w> 62144
I P 62138
tr ắ 62130
a _trị</w> 62121
Th ầy</w> 62099
ấu_ cơ</w> 62088
diễ n_tập</w> 62083
t ư_liệu</w> 62065
nộ i_t 62059
r út_ 62035
D e_ 62017
ac o</w> 62014
_t iết</w> 61979
ỏ i_ 61962
l d</w> 61957
ed er 61954
kiế n_tạo</w> 61950
ch ật_ 61940
x ây_ 61864
ung_ l 61855
sắc_ đẹp</w> 61849
A . 61841
lắp_ ráp</w> 61841
tối_ cao</w> 61840
Cô ng_trình</w> 61833
ần_ dần</w> 61832
ra_ lệnh</w> 61802
ng ừng_ 61779
tầ ng_ 61769
khẩ u_ 61766
s ĩ_quan</w> 61700
Nguyễn_Thị_ Kim_ 61695
a lo 61677
sai_ sót</w> 61674
B ec 61666
th ánh</w> 61662
mật_ ong</w> 61654
Ng ược_lại</w> 61620
9 6</w> 61610
And re 61597
c ương_vị</w> 61596
ag ram</w> 61588
s óng_ 61587
A z 61577
cô ng_thức</w> 61569
chữ a_trị</w> 61562
H án</w> 61530
lã o_ 61528
mệnh_ danh</w> 61522
chủ_ quan</w> 61514
We nger</w> 61513
chất_ béo</w> 61500
áng_gi ềng</w> 61487
xâm_ phạm</w> 61486
góp_ ý</w> 61475
th ẻ_ 61471
ch ồng_ 61460
i_tr ời</w> 61446
hiệ u_trưởng</w> 61443
thủ _lĩnh</w> 61428
tâm_tr ạng</w> 61421
thu_ gom</w> 61414
ch ốn</w> 61408
r ùa</w> 61402
_ F 61393
l ặ 61393
b ền</w> 61390
ê m_ 61382
hành_ nghề</w> 61382
tự_ ý</w> 61375
Báo_ chí</w> 61363
C úc</w> 61357
Tu r 61354
ệ n_tập</w> 61349
tận_ hưởng</w> 61340
9 8</w> 61325
n_tr ợ</w> 61325
phán_ quyết</w> 61305
kho a_ 61304
U y</w> 61300
sk y</w> 61266
c ư 61247
ổ_ số</w> 61235
Gi a</w> 61234
N u 61212
Tiểu_ học</w> 61206
trình_ báo</w> 61201
m_tr ùng</w> 61182
chủ_ch ốt</w> 61158
Biển_ Đông</w> 61147
_c ột</w> 61145
h ay_ 61138
P ri 61123
đ uối</w> 61115
kháng_ chiến</w> 61111
li ves 61089
anh_tr ai</w> 61079
hi_ vọng</w> 61077
P H 61076
L ưu</w> 61073
ạt_ nhân</w> 61060
il l</w> 61036
tiếng_ nói</w> 61034
cổ_ điển</w> 61029
định_ kỳ</w> 61023
Th í 61003
ăn_ mặc</w> 61002
chứ c_trách</w> 60993
S pu 60985
l áng_giềng</w> 60983
rộng_ lớn</w> 60978
m ười</w> 60969
Mi ura</w> 60959
B ul 60951
chứng_ chỉ</w> 60941
G er 60923
gặp_ mặt</w> 60922
ban_ đêm</w> 60898
o v</w> 60885
V A 60884
o g 60879
tr ùng</w> 60878
âm_ mưu</w> 60874
danh_ dự</w> 60853
n ati 60841
il a</w> 60835
20 30</w> 60818
os a</w> 60810
Merc ed 60776
s úng_ 60764
ồ ng_tr 60734
mô n_ 60733
con_ cháu</w> 60721
nhân_ chứng</w> 60699
n_ kém</w> 60685
nước_ mắm</w> 60682
dự_t oán</w> 60680
th ắp</w> 60677
mỹ _nhân</w> 60671
khái_ niệm</w> 60644
B ill 60640
ễ n</w> 60598
l ạnh_ 60577
c òi</w> 60573
đầu_ ra</w> 60555
e w</w> 60526
M ới</w> 60496
V i_ 60480
0 0- 60467
ph ẩm_ 60463
D am 60447
s ổ_ 60444
C am_ 60437
M H 60430
4. 0</w> 60424
dễ _thương</w> 60388
tâm_ hồn</w> 60387
trụ _cột</w> 60377
H en 60373
s ter 60368
Th iết_kế</w> 60366
uỷ_ quyền</w> 60363
Đ ội_ 60318
pro tein</w> 60316
Long_ Biên</w> 60307
NS ND</w> 60300
Ba_ Đình</w> 60296
2 1 60295
vợ _con</w> 60257
phân_ bố</w> 60247
màn_ ảnh</w> 60231
C ấp</w> 60230
Đ ô_ 60226
kỹ _lưỡng</w> 60223
t on 60217
môi_ giới</w> 60216
ọ _ 60200
x ấu_ 60169
Nguyễn_ .</w> 60135
nhân_t ố</w> 60116
ch áo</w> 60112
tiểu_ bang</w> 60111
Cri me 60096
quá _ 60089
d s</w> 60081
lo_ sợ</w> 60078
v is 60063
th ửa</w> 60059
gi ật_ 60054
A R 60037
x át</w> 60031
rõ_r ệt</w> 60021
Đ ịnh_ 60020
8 .000</w> 60004
Tr af 60001
Holly wood</w> 59999
ch én</w> 59997
K - 59996
t ộ 59971
anh_ chị</w> 59955
10 00</w> 59954
Cầ u_thủ</w> 59952
Gi ai_ 59934
đại_ hoá</w> 59927
a_h át</w> 59916
b ận</w> 59905
Tr uyền_hình</w> 59895
bùng_ phát</w> 59885
_t ang</w> 59879
hoạ ch_ 59874
ho ả 59837
Đan_ Mạch</w> 59806
lời_ nói</w> 59789
AN TĐ</w> 59785
s âm</w> 59759
S il 59753
máy_ ảnh</w> 59749
đ ũa</w> 59740
ng_l ẽ</w> 59724
D iệ 59722
r ừng_ 59706
9 3</w> 59700
bình_ yên</w> 59684
T ú_ 59672
thị nh_ 59665
mạ nh_ 59643
X II</w> 59633
lấn_ chiếm</w> 59633
n ôn</w> 59594
Ch ẳng</w> 59583
tố n_kém</w> 59572
n_tr ì</w> 59547
h iếm_ 59546
kh ung_ 59515
th ìa</w> 59512
el _M 59507
M áy</w> 59500
el d</w> 59492
luy ện_tập</w> 59487
sa _th 59484
s te 59457
thiếu_ nhi</w> 59457
ngoà i_trời</w> 59432
Nguy ệt</w> 59404
Hoàn_ vũ</w> 59400
g ốm</w> 59387
Bà_ Trưng</w> 59386
ầ y_ 59382
Ch ủ_ 59377
gi ò</w> 59368
H ill 59364
qu anh_ 59339
f e</w> 59326
_r ể</w> 59325
L ao_ 59323
W est_ 59322
e t_ 59321
ảnh_ gia</w> 59317
Tây_ Ninh</w> 59297
v ượt_ 59268
Hai_ Bà_Trưng</w> 59261
i a_ 59253
x ay</w> 59251
E VN</w> 59237
tên_ lửa_đạn_đạo</w> 59228
L ộc_ 59224
Saudi_Ara bia</w> 59221
gi ó_ 59212
kiểm_ định</w> 59207
đ ọng</w> 59201
t ầm_ 59200
báo_ giới</w> 59174
G ò 59161
ph u 59156
u_tr ợ</w> 59152
việ n_trợ</w> 59144
ng_t ư</w> 59141
tầng_ lớp</w> 59118
x i_ 59116
m âm</w> 59114
Spu tni 59098
198 8</w> 59093
nhãn_ hiệu</w> 59089
lã nh_ 59086
n_l ời</w> 59072
Công_ đoàn</w> 59067
Đàm_ Vĩnh_Hưng</w> 59067
l í 59060
t t 59048
g en 59009
gh en</w> 59004
nhiễ m_trùng</w> 59001
ph ú 58996
nguy _ 58976
d ưỡng_ 58974
0 6</w> 58970
riê ng_tư</w> 58966
Kh ô 58950
Thanh_ Vân</w> 58929
Thống_ kê</w> 58929
li ng</w> 58889
u_ nhân</w> 58888
sơ_t án</w> 58882
tâm_ huyết</w> 58881
vào_ vai</w> 58875
B T</w> 58867
A N</w> 58857
S E</w> 58852
L àm_ 58852
z e 58850
Gi ống</w> 58843
n_th ắng</w> 58830
chăm_ chỉ</w> 58824
o_th ủ</w> 58774
Old_ Traf 58772
x ắn</w> 58757
thầ n_tượng</w> 58756
r ước</w> 58753
chủ _lực</w> 58750
b lo 58749
b ày_ 58749
đúng_ đắn</w> 58733
X anh</w> 58732
đến_ nơi</w> 58729
B ig 58716
t ưới</w> 58715
bí_ quyết</w> 58711
g er</w> 58684
ph ẳng</w> 58680
lý _thuyết</w> 58657
VN .</w> 58656
t úi_ 58654
2- 0</w> 58652
Thủ_ Đức</w> 58638
g e_ 58626
Qu ế_ 58596
198 9</w> 58584
G h 58552
F re 58535
kim_ cương</w> 58526
lục_ địa</w> 58526
Thay_ vì</w> 58523
Nh ất_ 58507
Old_Traf ford</w> 58504
t d</w> 58498
V ợ 58496
Ch ánh_ 58472
x ít</w> 58469
ngo n_ 58429
b ầu_trời</w> 58412
mạ o_ 58407
L ạc</w> 58404
Ti n_t 58402
ư u_thế</w> 58392
đ ụng_ 58387
th ô 58386
r âu</w> 58374
e tr 58374
1 A</w> 58357
Ch ân</w> 58345
You Tu 58341
M adrid</w> 58321
R AM</w> 58316
C hàng</w> 58297
C C 58288
al i</w> 58286
s ư 58278
2 2. 58278
b in</w> 58277
t ắc</w> 58273
L iêm</w> 58259
a xit</w> 58246
N ăng_ 58244
hoang_ dã</w> 58240
độ i_trưởng</w> 58228
lượt_ đi</w> 58223
hiện_th ực</w> 58219
Crime a</w> 58213
l ót</w> 58205
ư_ đoàn</w> 58204
30 0.000</w> 58198
x ô</w> 58170
khoáng_ sản</w> 58169
ho i</w> 58168
k iều</w> 58153
S im 58149
tư_ pháp</w> 58148
Thiếu_t ướng</w> 58143
_tr ú</w> 58137
v ành_đai</w> 58133
Assa d</w> 58133
gol f</w> 58117
1 30</w> 58112
co i_trọng</w> 58110
Tạ p_chí</w> 58108
th ảo</w> 58106
Đông_ Nam</w> 58106
con_ em</w> 58099
đ ích_th 58097
D òng</w> 58095
kiểm_ điểm</w> 58076
H D</w> 58075
đa_ khoa</w> 58073
Tân_ Sơn_ 58073
Ả _R 58072
il la</w> 58035
T H</w> 58024
c ục_ 58004
x ẻ</w> 57997
Phan_ Văn_ 57994
sk i</w> 57993
Cuộ c_ 57993
Thí _sinh</w> 57978
T ay 57963
miễn_ dịch</w> 57943
mạ i_ 57939
b i_ 57936
x ích</w> 57935
e m_trai</w> 57933
c ụ 57928
h ẻ 57918
S en</w> 57904
tr ăm_ 57886
a ch 57855
ng_ hoàng</w> 57835
3, 5</w> 57827
c a_hát</w> 57818
Cửu_ Long</w> 57815
on s</w> 57807
đoà n_thể</w> 57804
Cận_ Bình</w> 57781
tr ực</w> 57780
hiện_ đại_hoá</w> 57754
Quy_ định</w> 57754
3 50</w> 57750
khủng_ khiếp</w> 57718
Thu ỳ 57707
sụt_ giảm</w> 57704
Th iếu_ 57693
ế ch</w> 57691
n_ n 57678
Hoài_ Linh</w> 57661
Ga al</w> 57646
Khô ng_thể</w> 57633
po p</w> 57628
B as 57622
hữu_ cơ</w> 57622
P VN</w> 57614
tín_ nhiệm</w> 57613
Â m_ 57610
Ngh ệ_th 57591
đại_ hội</w> 57589
Vợ _chồng</w> 57588
Sou th 57569
H ỗ 57561
giải_tr ình</w> 57559
R es 57558
Manchester _ 57558
C a_sĩ</w> 57554
d ưa</w> 57551
quả _tang</w> 57542
Nghệ_th uật</w> 57535
nhà_ nghỉ</w> 57532
Bộ _luật</w> 57523
nh ôm</w> 57513
Trung_ Hải</w> 57509
ngoạ i_tình</w> 57506
B ố</w> 57491
chỉnh_ sửa</w> 57458
t ỉnh_ 57453
M S</w> 57444
gi ặt</w> 57436
u ri 57433
L C</w> 57421
độ ng_tác</w> 57401
Lao_ Động</w> 57396
p os 57370
l ùng</w> 57356
R ol 57356
Sơn_ Tùng</w> 57354
R õ_r 57351
lo ri 57340
_M o 57319
dự_ bị</w> 57309
thị_tr ường_chứng_khoán</w> 57299
T C 57294
b o</w> 57292
Rõ_r àng</w> 57271
J er 57267
s ư_phạm</w> 57259
t y 57256
H N</w> 57252
nh _thể</w> 57244
kho áng</w> 57230
L ấy</w> 57226
Trần_ Đại_ 57226
Inst agram</w> 57200
Bang ko 57196
t ử</w> 57195
ho a_hồng</w> 57184
là m_th 57181
m in 57174
SC L</w> 57173
ak a</w> 57156
cố_ ý</w> 57151
r ộ</w> 57141
địa_ hình</w> 57105
H oài</w> 57079
Q L</w> 57051
T ỷ_lệ</w> 57037
kích_ hoạt</w> 57035
v ú</w> 57031
quy_t ắc</w> 57021
dây_ chuyền</w> 57014
Tổ ng_th 57013
chú ng_ 56999
c ưng</w> 56995
15 . 56991
12 , 56982
M iền</w> 56964
Th ư_ký</w> 56956
N ad 56951
giới_ chức</w> 56950
YouTu be</w> 56946
ng ọc</w> 56943
sa_th ải</w> 56938
c_ ngủ</w> 56934
Chứng_ khoán</w> 56934
máy_ b 56933
N V</w> 56897
vừa_ rồi</w> 56885
mặt_ nạ</w> 56883
công_ chúa</w> 56877
vĩ_ đại</w> 56856
Gro up</w> 56856
C er 56850
cư _trú</w> 56831
n ô 56825
Đ àn_ 56824
mơ_ ước</w> 56809
hữu_ ích</w> 56785
C y 56775
Xuân_ Trường</w> 56768
vắng_ mặt</w> 56764
à i_trợ</w> 56759
làng_ nghề</w> 56750
Công_ việc</w> 56733
đánh_ bạc</w> 56731
cổ _truyền</w> 56700
l av 56681
ề nh</w> 56680
r on</w> 56674
kế_t oán</w> 56657
th â 56643
l _ 56564
sống_ sót</w> 56558
Chấp_ hành</w> 56558
Chiế n_lược</w> 56540
kháng_ sinh</w> 56535
í_h ạt_nhân</w> 56518
ch ol 56517
mạo_ hiểm</w> 56513
trước_ hết</w> 56500
ĐB SCL</w> 56494
Đ B</w> 56451
lú n</w> 56410
ngày_ mai</w> 56362
Ph ạm</w> 56360
D an 56350
P GS</w> 56319
V ND</w> 56318
cứ u_trợ</w> 56314
m ác</w> 56313
Hợ p_tác</w> 56304
d es</w> 56303
V iết_ 56301
là n_s 56286
làn_s óng</w> 56282
Đ ăng</w> 56276
Alex and 56267
C en 56252
c ỗ</w> 56247
tr ì 56241
d ạn</w> 56214
ch ăn</w> 56213
nhà_ ga</w> 56202
Kỳ_ Duyên</w> 56189
mu ỗi</w> 56175
địa_ phận</w> 56163
en_th ưởng</w> 56145
th ềm</w> 56140
9 X</w> 56128
gian_ hàng</w> 56126
hoạ _tiết</w> 56117
hàng_ rào</w> 56117
thế _ch 56108
danh_t ính</w> 56072
m ư 56067
l ữ_ 56054
Đ ang</w> 56049
ati on</w> 56037
vừa_ phải</w> 56025
c at 56024
B ằng_ 56002
nh át</w> 55998
kỹ _thuật_ 55979
Tân_Sơn_ Nhất</w> 55976
l ật_ 55956
ch ảo</w> 55934
p .</w> 55928
riê ng_ 55926
y e 55915
es tiv 55875
Nhà_ báo</w> 55873
Ch áu</w> 55864
b ơ</w> 55852
hoa_ quả</w> 55824
M ộc_ 55810
thủ _thành</w> 55799
đ èo</w> 55793
l ặp</w> 55792
uy ễn</w> 55791
r ễ</w> 55775
Am er 55772
o_d ưỡng</w> 55770
Jos e_ 55757
tr iều</w> 55739
xếp_ hàng</w> 55736
s ương_ 55731
vũ_kh í_hạt_nhân</w> 55723
v ách</w> 55718
đ ậm_ 55703
Ninh_ Thuận</w> 55698
LĐ LĐ</w> 55695
Gi ọng</w> 55688
v ạch</w> 55683
id i 55676
H ướng_ 55666
Kh ải</w> 55658
làm_ quen</w> 55635
kiê n_trì</w> 55630
se xy</w> 55629
J us 55605
r ong</w> 55604
w al 55602
PG S.TS</w> 55598
Căn_ cứ</w> 55597
e x</w> 55580
m ưu_ 55575
TT g</w> 55555
x inh</w> 55552
18 - 55552
nhân_ văn</w> 55551
cầm_ quân</w> 55544
tủ _lạnh</w> 55524
P ra 55523
p h</w> 55516
en ce</w> 55494
ổ ng_ 55488
Ch ế_ 55487
M ời</w> 55470
0 9</w> 55465
g ầm</w> 55451
nh ất_th 55443
ra_ quân</w> 55443
Đ ộc_ 55434
ar e</w> 55430
ĐB P</w> 55411
Hậu_ Giang</w> 55410
19 45</w> 55409
khuôn_ viên</w> 55386
_th ù</w> 55381
phê _chuẩn</w> 55368
C ụ</w> 55362
ngh ênh</w> 55362
nhân_ dịp</w> 55361
_ch í</w> 55348
m ìn</w> 55338
ưu_ điện</w> 55331
iê m_t 55329
O s 55313
o_tr ạng</w> 55298
đá _ 55271
k s</w> 55265
Quy ết</w> 55256
vinh_ danh</w> 55251
kh u_tr 55227
l ốp</w> 55198
quốc_t ịch</w> 55139
ìn_ giữ</w> 55138
th ảm</w> 55129
Y am 55119
n_thu ần</w> 55116
liên_ bang</w> 55111
ngườ i_tình</w> 55097
Bayer n</w> 55088
D ự_th 55081
trung_th ành</w> 55053
Dự_th ảo</w> 55041
quan_ ngại</w> 55012
l ăn</w> 55000
nghệ _sỹ</w> 55000
ch iêm_ 54968
tức_ giận</w> 54959
xu ôi</w> 54946
n iên_ 54943
l and 54941
đơ n_thuần</w> 54940
m anh</w> 54938
t ần_ 54930
Ư ớ 54917
n_th ất</w> 54915
thành_ quả</w> 54908
B ởi_vậy</w> 54895
_s uất</w> 54891
đ ườ 54889
thăm_ hỏi</w> 54886
tâm_th ần</w> 54881
Lai_ Châu</w> 54880
bản_ sắc</w> 54878
ũng_ nên</w> 54877
s iết</w> 54869
t ích</w> 54852
_c ung</w> 54844
du_ học</w> 54840
UN E 54828
_t ự</w> 54824
ỡ_ng àng</w> 54815
to ạ_ 54800
r uộ 54782
c ài</w> 54777
th ị</w> 54771
điều_t iết</w> 54735
c uốn_ 54731
d ung_t 54720
c ò</w> 54717
B ĐBP</w> 54713
Ch ất_ 54696
sinh_ sản</w> 54688
p_ đổ</w> 54685
198 2</w> 54684
M ay</w> 54629
ứ a_ 54624
tí n_đồ</w> 54603
dũng_ cảm</w> 54603
phú c_thẩm</w> 54603
h iền_ 54598
cu ồng</w> 54583
gó c_độ</w> 54555
Olympi c_ 54549
chiề u_tối</w> 54518
L ạc_ 54511
m ê_ 54508
ng ỏ</w> 54507
tộ i_danh</w> 54507
cà_ chua</w> 54506
th iện</w> 54494
Đ àn</w> 54484
D iệu_ 54474
l ăng_ 54473
xe l</w> 54472
chóng_ mặt</w> 54472
v ĩnh_ 54468
9 7</w> 54463
D C</w> 54452
khắc_ nghiệt</w> 54425
K iế 54413
201 6- 54408
tiểu_ đường</w> 54396
bố c_ 54386
G lo 54383
m l</w> 54381
an s 54381
cao_t uổi</w> 54374
r áo</w> 54366
T E 54362
t ạ</w> 54353
m ềm_ 54343
Đ iề 54325
Nghĩ a_ 54311
Sh i 54310
Võ_ Văn_ 54309
_s i 54293
U yên</w> 54291
Nguyễn_ Tr 54274
l es</w> 54270
Ch ùa</w> 54259
Ban_ Chấp_hành</w> 54258
ng uộ 54235
Bác_ Hồ</w> 54228
al is</w> 54225
No te</w> 54223
R O</w> 54214
s ỏi</w> 54208
cô_ đơn</w> 54201
nhà_ vệ_sinh</w> 54190
g y 54184
h ung</w> 54139
15 .000</w> 54138
nh_tr uyền_hình</w> 54128
J . 54107
1- 1</w> 54069
chiến_đ ấu_cơ</w> 54052
m ài</w> 54029
ố n_ 54027
liên_ ngành</w> 54019
qu át</w> 54014
Sco t 53984
S iêu_ 53968
ống_ kính</w> 53960
pháo_ hoa</w> 53958
F ab 53947
Thông_ qua</w> 53945
cất_ cánh</w> 53907
198 6</w> 53905
l ề</w> 53887
Hà m_ 53870
tử _cung</w> 53867
S m 53857
Bo e 53849
N ạn_nhân</w> 53847
k el</w> 53840
ế_t ắc</w> 53836
ồ i_ 53828
x ướng</w> 53815
9 4</w> 53814
l ộng_ 53813
N av 53786
kh ôi</w> 53779
ng_t uyển</w> 53779
T àu_ 53762
Tiền_ Phong</w> 53749
p a</w> 53747
s ông_ 53745
sổ_ đỏ</w> 53736
L I 53730
Gran d_ 53730
T B</w> 53727
Hu ng 53722
bộ_ đội</w> 53706
Bình_ Minh</w> 53690
D ar 53679
0 7</w> 53648
VN - 53648
Th ánh_ 53641
Danh_ sách</w> 53632
t ước</w> 53625
Ch ile</w> 53619
giấ c_ngủ</w> 53613
phân_ bổ</w> 53607
đa_ phần</w> 53602
Manchester_ United</w> 53598
n_t ốc</w> 53597
Ngh i</w> 53596
rào_ cản</w> 53585
ê_b ối</w> 53579
J a 53571
y - 53565
20 . 53558
lan _truyền</w> 53554
e k</w> 53550
4 0.000</w> 53539
T M</w> 53532
ước_t iến</w> 53523
c ũng_nên</w> 53521
n e_ 53514
Tr a 53509
g ai</w> 53503
bộ_ môn</w> 53499
V ừa_ 53497
qu ầy</w> 53493
dị_ ứng</w> 53493
Tăng_ cường</w> 53490
16 - 53474
T ạ_ 53459
Sh in 53436
_d anh</w> 53426
R y 53424
ch ửi</w> 53422
Dầu_ khí</w> 53413
c ướp_ 53399
Ch uyến</w> 53381
so n_ 53373
24 / 53363
20 21</w> 53362
I v 53343
Inter nati 53341
trẻ_ con</w> 53340
biên_t ập</w> 53329
siêu_ mẫu</w> 53317
Thừa_ Thiên</w> 53285
ỉ m</w> 53278
lo ại_trừ</w> 53266
đường_ ống</w> 53262
u ỹ</w> 53251
thông_t ấn</w> 53226
khu ng_thành</w> 53214
v àng_ 53209
H iến_pháp</w> 53209
bá ch</w> 53206
ưởng_ đoàn</w> 53203
thủ_ đoạn</w> 53196
Jong- un</w> 53194
b ất</w> 53186
đảm_ nhiệm</w> 53182
Ngh ệ</w> 53161
b é 53160
ngày_ đêm</w> 53159
ch ọi</w> 53147
ch_l uỹ</w> 53142
Biên_ Hoà</w> 53140
Ber n 53137
th èm</w> 53127
hội_ viên</w> 53110
H oàn</w> 53107
M ậu_ 53084
ồ _ 53082
ữ _liệu</w> 53079
20 / 53065
văn_ nghệ</w> 53033
Nh ằm</w> 53030
vĩ_ mô</w> 53017
g ìn_giữ</w> 52982
l a_ 52979
t án</w> 52976
mặt_ nước</w> 52963
z i 52950
th uyền_ 52943
Đ ất_ 52934
ghi_ hình</w> 52908
K .</w> 52882
Kh ách</w> 52877
bất_ đồng</w> 52869
giúp_ việc</w> 52860
/201 2</w> 52853
T ăng</w> 52846
B í_ 52827
nhà_ phân_tích</w> 52817
M it 52816
19 - 52813
Đánh_ giá</w> 52803
b an 52793
l á 52789
tổ n_thất</w> 52787
ir o</w> 52785
iêm_t ốn</w> 52745
ghi_ nhớ</w> 52743
N ik 52741
qu ạt</w> 52741
thể _chế</w> 52732
G óc</w> 52721
Exp ress</w> 52700
N ằm</w> 52693
Nguyễn_ Thành_ 52670
v ác</w> 52669
_r ơi</w> 52660
xã_hội_ hoá</w> 52655
o_d ỡ</w> 52646
S ư_phạm</w> 52640
phá t_t 52640
kẻ _thù</w> 52637
d ần_dần</w> 52627
S ách</w> 52626
Bayer n_M 52601
S to 52593
chuyên_ đề</w> 52589
ó m_ 52588
Pos t</w> 52585
mị n</w> 52583
ý _chí</w> 52549
mạ ng_ 52549
Ngoại_ hạng</w> 52549
Ch ương_ 52544
V id 52540
s ưng</w> 52518
định_ giá</w> 52499
13 . 52484
Th ông_th 52471
cơ_ động</w> 52451
đ ắm</w> 52447
r ụng</w> 52360
Fran c 52336
D es 52311
am il 52308
14 . 52303
g ợi</w> 52288
K a 52286
b ế_tắc</w> 52281
w an 52276
T W</w> 52258
W on</w> 52255
: 00</w> 52254
ho ạn</w> 52254
tr uy</w> 52237
Par k_ 52236
tha _th 52229
t ay_tr 52221
kh iêm_tốn</w> 52216
tí ch_luỹ</w> 52216
th áo</w> 52206
khởi_ kiện</w> 52192
cấp_ độ</w> 52191
C R 52181
N V 52163
a_s ỹ</w> 52153
UNE SCO</w> 52152
họ ng</w> 52140
b uộ 52129
F one</w> 52121
bất_ lợi</w> 52093
pho ng_thuỷ</w> 52081
g us 52054
B ắt_ 52041
nh ư_ 52035
iếp_ dâm</w> 52025
Angel a_ 52022
_m àn</w> 52015
m_t uổi</w> 52000
_th oái</w> 51978
H S 51969
n ấy</w> 51962
b ước_tiến</w> 51959
V inh_ 51959
cho_ nên</w> 51954
tậ n_t 51951
x ổ_số</w> 51947
cuộc_ gọi</w> 51936
NG UY 51930
Sputni k</w> 51924
S ống</w> 51915
Thông_th ường</w> 51905
Phật_ giáo</w> 51895
1/ 3</w> 51889
S A 51888
thá o_dỡ</w> 51868
h 00</w> 51867
m ũ 51861
B os 51853
Ama zon</w> 51843
bộ _trưởng</w> 51840
thương_ mại_ 51832
lớ n_ 51827
qu ật</w> 51816
nhậ n_lời</w> 51812
m el 51807
V ĩnh</w> 51803
nấu_ ăn</w> 51784
n_th ần</w> 51767
cao_t ầng</w> 51764
sụ p_đổ</w> 51764
V Đ</w> 51759
c ận_ 51757
đầu_ bảng</w> 51748
cầm_ quyền</w> 51728
thầy_ giáo</w> 51726
người_ phát_ngôn</w> 51723
14 - 51712
a i_t 51710
a_ cạnh</w> 51696
bu ông</w> 51695
Ch ri 51683
Nguyễn_ Phú_ 51678
g ạt</w> 51673
ao ke</w> 51662
Tin_t ức</w> 51661
ch éo</w> 51629
quá n_ 51620
J en 51618
kiểu_ dáng</w> 51617
v ọt</w> 51612
th i_tuyển</w> 51600
tang_ vật</w> 51599
v ụ 51576
ào_ lưu</w> 51575
ây_ phút</w> 51574
O sc 51572
trong_ sáng</w> 51543
Tu ần</w> 51542
N ig 51527
Kur d</w> 51518
Điề u_tr 51516
Tuyên_ bố</w> 51493
I l 51487
us e</w> 51477
tr ấn_ 51475
13 , 51472
xo áy</w> 51459
nhận_ diện</w> 51457
n ương</w> 51432
lưu_ niệm</w> 51428
ìa_ khoá</w> 51427
g am</w> 51426
Ir eland</w> 51423
b ún</w> 51397
s i</w> 51396
trầm_ cảm</w> 51389
l ấn</w> 51384
d ư_ 51383
Osc ar</w> 51377
uộ m</w> 51372
B an 51371
uy ển_ 51366
US S</w> 51354
tạo_ hình</w> 51337
F eder 51333
đệ m</w> 51332
ti vi</w> 51325
Te ch 51315
Ab e</w> 51315
ạ n_thảo</w> 51314
Tu ất</w> 51300
l en</w> 51290
VOV. VN.</w> 51280
lớn_t uổi</w> 51279
cố t_ 51269
198 7</w> 51261
sân_ vận_động</w> 51256
kh éo</w> 51250
n a_ 51236
P A</w> 51233
V is 51211
ẽ _ 51204
F al 51200
b ol 51199
H TC</w> 51196
k in 51193
ôn_ luôn</w> 51190
h ứng_ 51180
N ữ_hoàng</w> 51177
gia_s úc</w> 51176
Kh ác</w> 51169
suy _thoái</w> 51162
kh í_th 51138
ar ez</w> 51130
khí a_cạnh</w> 51126
đạ i_t 51122
tuyển_ chọn</w> 51116
nước_ ngọt</w> 51108
c ối</w> 51107
bả o_dưỡng</w> 51079
ng ỡ_ngàng</w> 51066
đồng_t ính</w> 51065
ứ _sở</w> 51060
b óc</w> 51046
197 0</w> 51030
Bayern_M unich</w> 51003
tu m</w> 51002
In tel</w> 51001
1 10</w> 51000
d iện_ 50993
Đ ỏ</w> 50993
Đô _thị</w> 50990
r on 50985
nh_tr ị_ 50979
xinh_ xắn</w> 50974
Pháp_ luật</w> 50958
Nguyễn_ Quốc_ 50949
tiên_ phong</w> 50933
m er 50920
Đ ền</w> 50914
Giáng_ sinh</w> 50911
d ép</w> 50899
mu ỗng</w> 50879
biến_ chứng</w> 50877
xoá_ bỏ</w> 50874
nh - 50859
t ất_nhiên</w> 50834
Th ịt</w> 50831
ạng_ rỡ</w> 50793
linh_ kiện</w> 50788
.0 00.000</w> 50778
B L 50773
tr ă 50740
Th ay</w> 50739
H el 50737
nhà_ chức_trách</w> 50727
C ao</w> 50704
u_đ ặn</w> 50704
qu en_ 50703
C ổ</w> 50696
Sinh_ viên</w> 50690
.0 00- 50688
cuốn_ hút</w> 50688
a ho 50677
lưu_ lượng</w> 50676
cấu_ hình</w> 50671
Đ ặc_ 50670
bắt_ mắt</w> 50664
ân_ chương</w> 50661
sơ_ bộ</w> 50641
táo_ bạo</w> 50637
tưởng_ niệm</w> 50630
V ài</w> 50627
Nguyễn_ Quang_ 50600
t an 50599
M ur 50596
Thanh_ Hà</w> 50589
đau_ khổ</w> 50588
u_d àng</w> 50564
f a 50557
i_d âm</w> 50542
b ê_bối</w> 50526
ne ws</w> 50501
b ào_ 50491
so ạn_thảo</w> 50488
đ iên</w> 50462
chấn_ chỉnh</w> 50434
nồng_ độ</w> 50415
K an 50410
2 6 50410
thu ỷ_lợi</w> 50410
hiệp_ định</w> 50406
l í</w> 50382
Đơn_ vị</w> 50367
công_ cuộc</w> 50339
gi am_ 50329
z e</w> 50326
C ung_ 50325
tho ái</w> 50321
xo ắn</w> 50312
24 - 50302
Kh ởi_ 50285
mạ i_dâm</w> 50245
/ VOV.VN.</w> 50236
hội_ đàm</w> 50233
hiện_ vật</w> 50224
th ác</w> 50221
n es</w> 50219
c er 50218
C úp_ 50212
Diễn_ viên</w> 50207
CA ND</w> 50206
V. League</w> 50198
r ạng_rỡ</w> 50192
p_t ác_ 50186
i ng_ 50165
ảy_ máu</w> 50163
cá _tr 50156
Nghệ _sĩ</w> 50156
ĐB QH</w> 50155
Phát_ hiện</w> 50154
đặt_ chân</w> 50154
tà i_tử</w> 50152
phá_ hoại</w> 50152
o li 50151
B ốn</w> 50125
L S</w> 50113
h iếu_ 50111
ar t</w> 50111
M ùi</w> 50091
hoan_ nghênh</w> 50056
mắc_ kẹt</w> 50031
Ma z 50024
23 - 50021
thua_ lỗ</w> 50018
tu be</w> 50010
d ặm</w> 49978
ngừng_ bắn</w> 49963
phong_t oả</w> 49961
J an 49960
16 0</w> 49948
k s 49947
chu_ đáo</w> 49931
Trần_Đại_ Quang</w> 49925
i_tr uyền_hình</w> 49920
l ạ_ 49919
ph ở</w> 49901
gi òn</w> 49891
l ường</w> 49886
cầ u_th 49884
Thống_ Nhất</w> 49879
Ho ặc</w> 49872
đ ục</w> 49860
công_ đoàn</w> 49853
m ạ</w> 49847
bồ i_ 49843
mà_ lại</w> 49835
aw a</w> 49830
Trung_ Bộ</w> 49820
Cao_ đẳng</w> 49812
d ầ 49807
Qu ảng</w> 49806
H an 49803
Bùi_ Văn_ 49797
phẩm_ chất</w> 49789
thông_ số</w> 49788
c ự</w> 49776
đương_ nhiên</w> 49772
p_tác_ xã</w> 49753
úp_ bê</w> 49743
em en</w> 49740
d ê</w> 49734
chào_ mừng</w> 49733
bày_ bán</w> 49715
g ấu</w> 49699
bì a</w> 49697
Thiên_ Huế</w> 49689
Ch inh</w> 49687
Y ến_ 49680
n_tr ùng</w> 49648
VP F</w> 49647
k ệ</w> 49635
nguộ i</w> 49608
Kinh_ doanh</w> 49585
er son</w> 49568
trả_ giá</w> 49563
học_ hành</w> 49546
F in 49541
độ c_t 49539
M ir 49536
Ro y 49517
âm_ lịch</w> 49505
th ổ 49499
Ng ôi_sao</w> 49489
s ếp</w> 49483
bảo_ hộ</w> 49478
16 . 49460
thiết_ yếu</w> 49458
17 - 49457
Tr u 49447
ọn_ dẹp</w> 49439
ca_ ngợi</w> 49436
Cao_ Bằng</w> 49435
bắt_ nguồn</w> 49430
V ị 49429
s ay_ 49421
F estiv 49417
tr ên_ 49412
nghĩ a_trang</w> 49411
t em</w> 49397
tối_ ưu</w> 49390
le y_ 49381
cá o_trạng</w> 49374
dị u_dàng</w> 49344
ph ản</w> 49343
huỷ_ bỏ</w> 49327
chuy ên_tr 49325
cổ_ động_viên</w> 49314
đ ẫm</w> 49311
D ani 49287
suy_ yếu</w> 49272
Sh a 49264
o_th ang</w> 49259
đề u_đặn</w> 49251
khu ất</w> 49251
kết_ cấu</w> 49244
d â 49243
lập_ công</w> 49238
lap top</w> 49203
hiếm_ hoi</w> 49200
bài_ bản</w> 49197
Ser ge 49192
i on</w> 49190
ung_th u</w> 49186
đố n</w> 49176
L as 49174
Qu án_ 49166
H ợp</w> 49153
9 .000</w> 49148
Y u 49134
k í</w> 49122
sương_ mù</w> 49101
Đ ôi</w> 49089
P L 49080
Tử _ 49078
ng ần_ 49077
U td</w> 49069
S uốt</w> 49068
nh_tr ùng</w> 49066
địa_ lý</w> 49045
Ph ụ 49043
Đ ôi_ 49039
Phần_ lớn</w> 49036
Sp or 49030
Đ ằng</w> 49017
đ ùi</w> 49015
ngày_ xưa</w> 49011
Nhân_ dịp</w> 48995
ng a</w> 48990
le o_thang</w> 48986
phầ n_tử</w> 48954
m ad 48940
t el 48938
tố _t 48909
N et 48905
khối_ u</w> 48903
N X 48900
di o</w> 48888
Y êu</w> 48886
c ớ</w> 48885
chú _rể</w> 48879
kh en_thưởng</w> 48878
Tiền_ vệ</w> 48835
c_s ư</w> 48832
198 5</w> 48832
lo gi 48821
la s</w> 48811
hối_ lộ</w> 48810
Pe tro 48805
túi_ xách</w> 48803
bá u</w> 48801
m ent</w> 48782
i_t ụ</w> 48781
Thượng_ Hải</w> 48779
p a_ 48772
Ch ân_ 48765
k ì 48760
Y emen</w> 48746
S ab 48744
Vu a_ 48740
ph ì</w> 48737
tr iết_ 48685
đ ờ 48680
28 - 48672
kh ôn_ 48670
K . 48668
C risti 48658
m_th áng</w> 48654
P ro</w> 48653
c_ n 48653
Ph óng_ 48649
18 0</w> 48645
tuyên_ phạt</w> 48640
TN O</w> 48635
A h 48631
ki ng</w> 48628
đ è</w> 48622
lu ôn_luôn</w> 48602
n an</w> 48600
minh_ chứng</w> 48593
h ôi</w> 48576
13 - 48565
C ơ</w> 48563
do l</w> 48539
Tu ổ 48511
phá t_thanh</w> 48479
m í</w> 48477
us h 48475
n ới</w> 48459
AT M</w> 48438
Jor dan</w> 48433
Hỗ _trợ</w> 48414
trở_ ngại</w> 48400
G az 48399
Thừa_ Thiên_Huế</w> 48388
hiệu_ suất</w> 48363
khí_ đốt</w> 48363
ướ i_ 48361
sâu_ rộng</w> 48356
hạt_ giống</w> 48340
ái_t ạo</w> 48340
xu _thế</w> 48337
Ukra ina</w> 48335
O ne</w> 48303
y_ học</w> 48302
x ứ_sở</w> 48295
x ỉ 48291
thiếu_ nữ</w> 48286
giật_ mình</w> 48277
4 G</w> 48274
m ầm</w> 48262
o_th eo</w> 48258
V ol 48254
Th ị</w> 48254
ĩ _nhiên</w> 48250
truy_ nã</w> 48236
kar aoke</w> 48231
ph iền</w> 48220
th iện_ 48208
1 1, 48204
b ã</w> 48203
ch ết_ 48202
it h</w> 48200
t ỷ 48191
quần_ chúng</w> 48182
2 1- 48175
Đ ứng</w> 48167
ng_t ài</w> 48167
ngần_ ngại</w> 48165
tuy ên</w> 48154
ch ảy_máu</w> 48144
ph ế 48143
Thuỳ _Linh</w> 48138
P le 48136
Bangko k</w> 48132
Vietnam_ Airlines</w> 48120
quyền_ hạn</w> 48117
Bình_ Thạnh</w> 48116
ag o</w> 48109
n ốt</w> 48108
d ọn_dẹp</w> 48102
biệt_ danh</w> 48101
h ả 48092
riêng_ biệt</w> 48083
nhà_t ài_trợ</w> 48076
Bóng_ đá</w> 48071
27 - 48069
dày_ đặc</w> 48045
trú ng_tuyển</w> 48043
S el 48038
Chiến_ dịch</w> 48028
thư_ viện</w> 48018
Sự_ kiện</w> 48017
đặc_ nhiệm</w> 48011
G al 48009
Ch úc</w> 48009
N is 47995
ung_l ũng</w> 47991
khí_th ải</w> 47988
đại_ sứ</w> 47986
hoà_ giải</w> 47984
A w 47982
N úi</w> 47982
C ái_ 47973
19 . 47965
tă ng_t 47963
at ia</w> 47961
thế_ch ấp</w> 47951
s im</w> 47937
M ười</w> 47918
Hung ary</w> 47908
S A</w> 47893
Tiền_ đạo</w> 47880
ký_ ức</w> 47870
te ra</w> 47868
đại_ chúng</w> 47865
U V</w> 47854
nhận_ biết</w> 47851
lưu_ hành</w> 47848
cưỡng_ chế</w> 47845
D ậu</w> 47841
M ông</w> 47840
n_th ưởng</w> 47838
Chỉ _thị</w> 47835
chính_ đáng</w> 47831
cảm_ ứng</w> 47821
Lu ân</w> 47800
ch ạ 47787
thuỷ _thủ</w> 47784
D . 47778
khuy a</w> 47776
m ini</w> 47767
n_th ành</w> 47767
v ấp</w> 47760
giá p_ 47754
bảo _trì</w> 47747
ỏ m</w> 47732
ết_ điểm</w> 47724
C ăn</w> 47712
ỡ _ 47708
Trà_ Vinh</w> 47707
t ái_tạo</w> 47699
t ị 47698
ngoạ i_th 47697
B V 47696
B itcoin</w> 47689
tình_t iết</w> 47686
n ap 47679
Nội_ Bài</w> 47678
t inh</w> 47674
phản_ cảm</w> 47671
T ướng</w> 47617
ko vic</w> 47610
H P</w> 47605
_h ại</w> 47602
n_l ược_ 47590
lu m</w> 47569
mạ ch_ 47567
Th ường</w> 47543
7 0 47542
thủ_ phạm</w> 47539
Boe ing</w> 47536
Th e 47526
ai_t ây</w> 47522
Ale ppo</w> 47521
tác_ hại</w> 47513
y s 47496
st ar 47494
H aw 47467
ng ặt</w> 47461
chuyển_ hoá</w> 47453
an - 47448
Có _ 47444
phải_ biết</w> 47437
r ã</w> 47431
trang_ sức</w> 47426
mộ c</w> 47424
quý_ giá</w> 47417
50 0 47409
nh ái</w> 47401
m_th u</w> 47392
Đầu_t iên</w> 47379
quay_ phim</w> 47369
k iệt</w> 47365
Kh ách_ 47361
d ặn</w> 47349
B ID 47332
g ậy</w> 47329
chiế n_sỹ</w> 47315
thu_h ẹp</w> 47305
Đ K 47300
an_ sinh</w> 47296
khả_ quan</w> 47284
b ừng</w> 47283
ẽ n</w> 47277
tiêm_ kích</w> 47277
l es 47270
V it 47268
n ọ</w> 47260
Liên_ hiệp</w> 47255
n_đ ài</w> 47249
thuy ề 47247
kh am</w> 47233
khá nh_thành</w> 47231
cá nh_tay</w> 47227
th a</w> 47220
n_tr ạng</w> 47211
h ang_ 47209
id es</w> 47209
ca_ nhạc</w> 47202
cuộ n</w> 47190
th ỉnh_thoảng</w> 47185
Quân_ khu</w> 47182
su b 47177
sá t_th 47176
hi t</w> 47172
vô_ số</w> 47170
ể_ nào</w> 47156
Diễ m_ 47153
ch ìa_khoá</w> 47150
xa_ lạ</w> 47145
dầu_ mỏ</w> 47131
l ẻ</w> 47103
Trái_ đất</w> 47086
phá _sản</w> 47085
mun d</w> 47082
c ai</w> 47053
n ộ</w> 47050
kê nh_truyền_hình</w> 47049
nh_t áo</w> 47043
tăng_t ốc</w> 47034
kỳ _hạn</w> 47033
Di_ sản</w> 47027
nhiếp_ ảnh_gia</w> 47024
b ú</w> 47012
họ _ 47009
giao_ diện</w> 46983
L os_ 46981
9 0 46981
17 . 46979
I - 46971
Thống_ đốc</w> 46966
N ap 46961
m ắt_ 46954
d ối</w> 46950
g a 46950
Tuyên_ Quang</w> 46939
g ọn_ 46921
k ini</w> 46918
Nguyễn_ Hồng_ 46917
c ấy</w> 46904
e u</w> 46889
tràn_ lan</w> 46886
Đạo_ diễn</w> 46875
O ce 46874
18 . 46848
P a</w> 46846
l ụt</w> 46843
o m</w> 46838
Ch ú</w> 46802
tổ n_ 46801
K r 46799
R O 46797
N ước_ 46779
ké o_theo</w> 46759
tr í</w> 46749
cảnh_ giác</w> 46743
L ad 46740
ph úc_ 46738
tập _thể 46718
mặt_tr ận</w> 46716
khuy ết_điểm</w> 46712
quý _h 46685
Quy_ Nhơn</w> 46682
ar y_ 46681
chu ồng</w> 46680
ứ _m 46646
th ả 46646
ứ_m ệnh</w> 46643
Sa u_này</w> 46632
se x</w> 46629
Na_ Uy</w> 46627
Ph ân_ 46626
r ổ</w> 46625
khô ng_th 46625
V ườn_ 46613
z z 46603
chị u_ 46602
r ẫy</w> 46600
1- 0</w> 46596
Wor ld</w> 46596
SH B</w> 46589
tr ách</w> 46574
t ả</w> 46573
m ốt</w> 46568
Y e 46567
p an 46563
mô_t ô</w> 46561
2 6- 46556
Tuy ết_ 46555
Đ ắc_ 46547
im a</w> 46542
ự u_ 46513
i_d ào</w> 46508
Chỉ_ số</w> 46504
Ro b 46503
song_ song</w> 46502
L at 46501
Cộng_ sản</w> 46487
th ú 46485
li e</w> 46480
tỉ nh_táo</w> 46469
lượt_ về</w> 46462
Họ c_sinh</w> 46430
t iện</w> 46429
l â 46426
nă m_tháng</w> 46413
H C</w> 46411
ù _l 46410
Rober t_ 46382
_t ập</w> 46375
quý_h iếm</w> 46369
khu_tr ục</w> 46367
Gi ờ_ 46339
Th ẩm_ 46333
en z 46332
os h 46325
b ar 46324
b ồn</w> 46321
Q - 46307
Mos k 46305
h áo_ 46292
một_ ít</w> 46292
d ã 46278
Thu ỳ</w> 46265
a _tr 46244
c_n uối</w> 46237
US B</w> 46236
in o 46229
phát_ ngôn_viên</w> 46229
ell i</w> 46224
Giai_ đoạn</w> 46222
A sh 46212
đạ i_dương</w> 46207
tuổ i_trẻ</w> 46199
Su z 46190
t ả 46181
Man_ Utd</w> 46180
n ữ_ 46174
_s ách</w> 46169
đường_ kính</w> 46167
do r 46163
C á</w> 46161
bá nh_m 46147
B ích</w> 46145
hợp_ nhất</w> 46144
BID V</w> 46140
on al</w> 46133
h ức</w> 46130
ph ỏng</w> 46109
P - 46106
xi_ măng</w> 46097
T im</w> 46094
chiêu_ mộ</w> 46090
d ạng_ 46089
ấu_h ổ</w> 46087
tỉ nh_thành</w> 46087
Đ ộng_ 46084
v ắt</w> 46050
N K</w> 46043
gó t</w> 46038
tri_ ân</w> 46002
Tiế p_ 45995
b as 45991
tà u_thuyền</w> 45987
Ph il 45984
đ iên_ 45983
S en 45977
ec o</w> 45976
ho ả_ 45975
30 . 45970
gi ây_phút</w> 45969
V KSND</w> 45960
Tham_ gia</w> 45949
phòng_ khám</w> 45941
New_Yor k_ 45941
biên_ phòng</w> 45938
Viet lo 45937
nhà_tr ọ</w> 45923
Ph iên_bản</w> 45918
ưu_ điểm</w> 45915
m ê 45914
tr ực_ 45912
bộc_ lộ</w> 45910
23 . 45903
thao_t ác</w> 45896
o i</w> 45893
Vi r 45875
c a_sỹ</w> 45873
Giá m</w> 45871
g g 45860
Nguyễn_Phú_ Trọng</w> 45855
ăn_ mừng</w> 45843
l ê</w> 45833
đụng_ độ</w> 45832
cơ m_ 45831
k ẽ</w> 45828
d ồ 45813
ly_ khai</w> 45807
m iện</w> 45806
ti m 45797
Dor t 45794
liên_ doanh</w> 45788
a_ chua</w> 45784
Thuỵ _ 45778
Di eg 45761
tổn_ hại</w> 45750
l ẫy</w> 45746
Lê_ Minh_ 45731
nh uộm</w> 45720
Chính_ sách</w> 45720
Hạ_ viện</w> 45719
t ẩy</w> 45717
Kh á 45714
xe_ ôm</w> 45702
gi ã</w> 45682
sôi_ nổi</w> 45667
t ú 45666
L ại</w> 45663
T oà 45661
Ngh ị</w> 45655
d ưng</w> 45645
cô n_trùng</w> 45634
ằ n_ 45610
không_th ể_nào</w> 45606
chuyển_ động</w> 45593
Hình_ sự</w> 45589
dồ i_dào</w> 45589
tiế c_nuối</w> 45587
Mer kel</w> 45587
TP O</w> 45583
Đ en</w> 45575
t u</w> 45573
cường_ quốc</w> 45573
mạnh_ dạn</w> 45571
Sh ar 45547
Tây_ Hồ</w> 45538
Diệ p_ 45523
bản_ địa</w> 45508
D uy 45501
B ao_ 45501
nh u 45497
_s úng</w> 45497
ca nh_t 45481
Ch a</w> 45463
nh uyễn</w> 45461
.com .</w> 45455
V ật_ 45413
nă m_tuổi</w> 45411
Th i 45401
J C</w> 45398
w a</w> 45398
tr ào_lưu</w> 45396
th iệt_th 45394
L ữ_ 45385
Hành_ động</w> 45383
khoa_ học_ 45370
chào_ bán</w> 45369
mới_ lạ</w> 45366
Cộng_ đồng</w> 45348
L ệ</w> 45341
Tân_ Bình</w> 45323
b ai</w> 45322
b ãi_ 45321
ề u</w> 45317
chiêm_ ngưỡng</w> 45302
Trần_ Quốc_ 45295
Cá n_bộ</w> 45291
Â u_ 45285
tập_thể _dục</w> 45283
b or 45277
Viet combank</w> 45272
Guardi ola</w> 45256
lo p 45253
bi kini</w> 45253
Phạm_ Hương</w> 45231
xuống_ đường</w> 45223
thất_th oát</w> 45208
quen_ biết</w> 45208
Th ế 45203
hạ nh</w> 45201
đề_ phòng</w> 45195
ởi_ mở</w> 45192
v ét</w> 45191
làm_ giàu</w> 45191
chọn_l ựa</w> 45177
nguy_ kịch</w> 45175
quốc_ hội</w> 45167
H ữu</w> 45163
x ấu_hổ</w> 45161
s ung_ 45159
Gi ao</w> 45147
_h ổng</w> 45144
H uyện_ 45129
bảo_ lãnh</w> 45127
Bình_ Chánh</w> 45124
cẩ u</w> 45124
hẻ m</w> 45124
lâu_ đời</w> 45117
l ar 45116
kỳ _d 45115
B ru 45114
ch ì</w> 45109
VN- Index</w> 45106
ộ p</w> 45097
iển_tr ai</w> 45097
nhà_ đất</w> 45092
bo m_ 45090
trung_th ực</w> 45089
l ăng</w> 45087
Dort mund</w> 45086
Sa in 45053
đầu_ vào</w> 45030
lives how</w> 45020
Khách_ hàng</w> 45018
hộ i_tụ</w> 45013
Th om 45004
You tube</w> 45004
it y_ 45000
g ấp_ 44963
ch ợt</w> 44960
Ph iên</w> 44956
ol i</w> 44952
Sa ig 44952
họ_ hàng</w> 44950
Thượng_ viện</w> 44949
toà n_thể</w> 44949
giáo_ khoa</w> 44947
ử ng</w> 44935
em a</w> 44935
tàn_ phá</w> 44916
tiêu_h uỷ</w> 44912
Trái_ Đất</w> 44902
sóng_ gió</w> 44898
đồ_ hoạ</w> 44890
on a</w> 44883
e k 44873
mở _màn</w> 44868
P as 44861
n_lược_ gia</w> 44847
iê u_l 44844
Nad al</w> 44841
thể _dục</w> 44837
Số _lượng</w> 44836
Tr âm</w> 44831
Qu ách_ 44823
b ile</w> 44822
Kh ôi</w> 44802
19 60</w> 44798
t le</w> 44777
su ýt</w> 44755
ag a</w> 44747
K at 44734
Ch ợ</w> 44727
đ iển_trai</w> 44725
r en</w> 44712
thiệt_th òi</w> 44709
b í_thư</w> 44690
F ul 44685
c ởi_mở</w> 44675
Th ần_ 44662
_kh ẩu</w> 44648
tụ _tập</w> 44647
chí nh_trị_ 44639
tâm_ linh</w> 44636
tân_ binh</w> 44635
v es</w> 44621
khuyến_ mãi</w> 44613
Micha el_ 44581
vùng_ cao</w> 44575
thương_ lái</w> 44563
h ầu</w> 44557
canh_t ác</w> 44556
T I 44550
h iếp_dâm</w> 44548
Mosk va</w> 44537
thế _trận</w> 44532
háo_ hức</w> 44516
ph u_nhân</w> 44514
M ê_ 44499
T ạo</w> 44494
thanh_ lịch</w> 44492
hì nh_tượng</w> 44488
môn_ học</w> 44482
2 2- 44466
19 / 44458
n êm</w> 44455
P L</w> 44428
T ương_ 44427
giờ_ địa_phương</w> 44421
chuẩn_ mực</w> 44413
bộ_ binh</w> 44403
thai_ nhi</w> 44399
đa u_lòng</w> 44390
V õ</w> 44385
a in</w> 44377
nghiêm_ ngặt</w> 44370
p er</w> 44349
Ho á 44341
S ong_ 44340
i_tr ồng</w> 44340
ch ơi_ 44328
_ch iến</w> 44302
bánh_m ì</w> 44298
m an_ 44277
dung_t ích</w> 44274
ni f 44271
qu ỷ</w> 44229
198 4</w> 44217
Kh a 44210
re m 44207
nhân_ loại</w> 44202
tố p</w> 44201
b úp_bê</w> 44193
3- 4</w> 44161
Ngày_ nay</w> 44145
tẩ y_ 44144
tạ p_ 44142
A I</w> 44118
Vietlo tt</w> 44116
lú a_ 44112
E li 44111
Giờ_ đây</w> 44108
M r 44102
chủ _nhiệm</w> 44102
u_h ụt</w> 44096
29 - 44093
ã nh</w> 44089
Mobi Fone</w> 44089
14 , 44082
đến_ nỗi</w> 44075
y s</w> 44069
Viet Nam 44042
ho r 44025
cứu_ hoả</w> 44019
kh iếu</w> 44006
L ầu_ 43994
E v 43982
th ầu</w> 43978
g an 43961
lão_ hoá</w> 43950
o t</w> 43948
L ăng</w> 43945
tự _sát</w> 43945
thế _lực</w> 43930
ack er</w> 43930
T p.</w> 43929
can xi</w> 43928
ng à 43925
B S 43917
Nguyên_ liệu</w> 43914
_l y</w> 43909
võ _thuật</w> 43898
r ung</w> 43897
đắt_ đỏ</w> 43889
tố_t ụng</w> 43873
Đông_ Bắc</w> 43868
nước_ nhà</w> 43863
v iễn</w> 43839
Tây_ Nam</w> 43824
Bệnh_ nhân</w> 43824
quyề n_s 43821
Uni ver 43807
b ù_ 43806
đ ôn_ 43800
số_ ít</w> 43783
M ục_ 43774
ik a</w> 43762
in d 43760
C àng</w> 43755
Qu an</w> 43747
te en</w> 43731
cầu_ vượt</w> 43729
rag on</w> 43725
ch en</w> 43724
th on</w> 43712
ng ôi_ 43709
L av 43696
g ba</w> 43684
vật_ lý</w> 43674
u ế</w> 43664
ộ m</w> 43659
quân_ nhân</w> 43657
S éc</w> 43649
Nh ận_ 43632
nh a</w> 43613
kh ống</w> 43613
T Ư</w> 43607
Độ_ ẩm</w> 43585
vội_ vàng</w> 43583
Hu ân_chương</w> 43579
r ạch</w> 43571
Vị _trí</w> 43564
vậ y_mà</w> 43556
sân_ cỏ</w> 43556
Đ H 43546
dòng_ chảy</w> 43534
Qu án</w> 43533
j i</w> 43511
qu ỵ</w> 43499
_ N 43497
đ ệ</w> 43487
nh ức</w> 43484
  km</w> 43474
Kh ương</w> 43474
Mo ham 43470
Đ iệp</w> 43460
V TV 43458
Cristi ano_ 43439
kh ỉ</w> 43436
S c 43430
tr ung_t 43424
Giám_ đốc_điều_hành</w> 43420
quy ên_ 43409
l am 43401
Á _ 43401
o_d áng</w> 43401
B oo 43400
thuyề n_trưởng</w> 43397
C ú</w> 43394
s - 43393
Los_ Angel 43390
anh_ giới</w> 43380
V ốn</w> 43366
tiệ n_lợi</w> 43363
M ối</w> 43358
T iết_ 43354
sáng_t ỏ</w> 43354
su s</w> 43334
nhà_t ù</w> 43319
rút_ lui</w> 43318
tử _hình</w> 43314
giả_ mạo</w> 43306
x ô_ 43298
Hy und 43296
ệt_ may</w> 43289
hoá _thân</w> 43288
n_tr iệt</w> 43282
trung_ học</w> 43279
xúc_ phạm</w> 43278
ch ọc</w> 43277
nó c</w> 43271
âm_th ầm</w> 43253
si nh_t 43248
tái_ hiện</w> 43242
mi x</w> 43241
dự _luật</w> 43236
l ắc</w> 43235
Bà_Rị a</w> 43235
Rom a</w> 43233
tu i</w> 43229
An t 43226
Th ần</w> 43206
d ội</w> 43170
án_ học</w> 43160
truyề n_tải</w> 43150
NX B</w> 43149
r ể</w> 43146
H ảo</w> 43145
X ử 43142
12 5</w> 43132
điểm_ số</w> 43128
d ẻo</w> 43118
NT K</w> 43115
vương_ miện</w> 43102
h ồng_ 43097
Thuỷ_ Tiên</w> 43083
ch ùm</w> 43079
Bắc_ Mỹ</w> 43054
25 / 43049
l ạ 43038
ă n_th 43031
ban_ ngày</w> 43019
diễ u_ 42990
Th iết</w> 42974
V iệ 42969
r ách</w> 42967
ch èo</w> 42961
cường_ độ</w> 42959
Sự_ nghiệp</w> 42958
k _S 42954
m ắng</w> 42941
ng_t àu</w> 42927
f e 42926
id a</w> 42918
Đ ời_sống</w> 42913
x ương_ 42910
má t_ 42902
Ber lin</w> 42902
n uốt</w> 42899
Feder er</w> 42894
l ọ</w> 42886
quyền_s ở_hữu</w> 42885
khá n_đài</w> 42884
I bra 42883
Thông_ báo</w> 42879
lây_ lan</w> 42879
n ối_ 42874
3 70</w> 42850
p al</w> 42850
kỹ_thuật_ số</w> 42849
ậm_ chức</w> 42838
bình_ dân</w> 42834
Chiế n_thắng</w> 42825
_t ức</w> 42820
ID S</w> 42815
khuyến_ mại</w> 42808
C M 42807
bảo_hiểm_ y_tế</w> 42805
đ âu_ 42800
tuổi_th ọ</w> 42793
thiế u_hụt</w> 42786
õ m</w> 42772
hộ _t 42754
ờ _h 42750
tiể u_thương</w> 42739
nổ _súng</w> 42737
AN H</w> 42729
bấy_ giờ</w> 42728
d en</w> 42726
Te x 42700
đ e</w> 42696
C ường_ 42687
hiện_ hữu</w> 42680
Quỳnh_ Anh</w> 42671
tình_ cờ</w> 42663
s ụt</w> 42660
Ro dri 42648
V ẻ</w> 42624
G ri 42620
Nhà_ văn</w> 42604
Tối_ cao</w> 42592
nghiêm_ khắc</w> 42584
vận_ dụng</w> 42580
Đ . 42578
Phóng_ viên</w> 42576
tiến_tr iển</w> 42573
v ăng</w> 42561
ấn_ định</w> 42543
ự c_th 42540
u_th ô</w> 42537
ầm_ lẫn</w> 42526
v á</w> 42525
h a 42522
nh ậm_chức</w> 42514
ng ư</w> 42510
QĐ- TTg</w> 42491
d in 42483
VOV. VN</w> 42478
at es</w> 42470
gi à_ 42460
Mar k_ 42445
lật_ đổ</w> 42445
C a_ 42442
V ua</w> 42441
Sơn_ Trà</w> 42433
bảo_ hành</w> 42426
hoà_ nhập</w> 42423
c ai_ 42420
mạch_ máu</w> 42417
C ựu_ 42407
nhập_ cảnh</w> 42403
nhà_ giáo</w> 42387
ố i_t 42362
Z ing</w> 42361
iệ m_ 42356
197 9</w> 42350
H è</w> 42349
ngoại_ ô</w> 42347
đa_ dạng_ 42345
_t iên</w> 42332
ũ _l 42330
ard s</w> 42320
ash i 42297
đườ ng_thuỷ</w> 42297
đ inh</w> 42290
cá _m 42290
Hương_ Giang</w> 42290
qu ỳ</w> 42287
B ăng_ 42285
T ên_ 42282
Thương_ binh</w> 42268
id er</w> 42254
Gi áp</w> 42252
s il</w> 42232
vậ t_t 42224
Jam es 42215
A ir</w> 42210
Minh_ Tuấn</w> 42205
y u 42191
b én</w> 42182
sáng_ chế</w> 42181
c ao 42165
Đỗ _M 42161
r es</w> 42159
ngôi_ vị</w> 42151
p en 42148
định_ vị</w> 42132
1. 200</w> 42128
i_ Won</w> 42122
Vừa_ qua</w> 42109
3 5 42106
t ồn_ 42098
E le 42096
trung_ gian</w> 42088
l ụa</w> 42077
th ơ 42071
n ợ_ 42069
Tình_ yêu</w> 42066
t ao</w> 42060
b ế</w> 42057
P R</w> 42042
X ét</w> 42034
c c 42029
lỗ _hổng</w> 42018
thân_ mật</w> 42002
Cristiano_ Ronaldo</w> 42000
ưa _thích</w> 41997
tế - 41994
lặ ng_lẽ</w> 41986
Hôm_ qua</w> 41984
Ab d 41974
D ung_ 41970
g ánh_ 41963
C ửa</w> 41942
đương_ kim</w> 41942
B à 41937
sách_ giáo_khoa</w> 41936
Kh ám_ 41918
s ta 41916
ch ưng</w> 41916
SI M</w> 41912
1/201 8</w> 41908
VietNam Net</w> 41902
ớ t_ 41900
Le ic 41894
hành_ hung</w> 41873
en i 41848
e y 41837
sốt_ xuất_huyết</w> 41827
núi_ lửa</w> 41827
tù _nhân</w> 41824
cổ _tức</w> 41813
x oài</w> 41809
hấp_th ụ</w> 41785
Trường_ Sơn</w> 41774
lộng_ lẫy</w> 41768
16 / 41754
o ng 41741
sư _tử</w> 41734
tương_ đồng</w> 41732
nữ _tính</w> 41732
vật_t ư</w> 41730
x _ 41724
Tư_ vấn</w> 41724
r ăn_ 41722
n_tr ú 41721
Cro atia</w> 41718
b ồ</w> 41714
en t_ 41704
dầ u_thô</w> 41694
Con_ số</w> 41689
n and 41688
ng ạc</w> 41683
chu_ kỳ</w> 41682
í_ như</w> 41674
phạ t_ 41664
Đ o 41660
m ũ_ 41655
s ứ_mệnh</w> 41652
d ao_ 41643
Ever ton</w> 41637
chuyên_ dụng</w> 41629
Công_ văn</w> 41628
Tuần_ lễ</w> 41628
b ật_ 41622
V CK</w> 41612
quyên_ góp</w> 41607
_t ắc</w> 41602
Nhã_ Phương</w> 41599
j i 41598
hoả_ hoạn</w> 41598
Qu á</w> 41597
ẻ _t 41593
b ới</w> 41582
đột_ nhập</w> 41580
b ạ</w> 41579
U ống</w> 41578
tr ễ</w> 41578
H ạnh_ 41574
khung_ cảnh</w> 41565
Tr iệu</w> 41561
khai_ báo</w> 41561
ph ao</w> 41557
đồ_ đạc</w> 41553
Hiệp_ ước</w> 41549
p - 41545
m ét_ 41540
No v 41538
chủ_ nghĩa_ 41535
Y ê 41530
hiệ n_trạng</w> 41528
ng_t ên</w> 41512
k ĩ 41510
ak u</w> 41509
S D</w> 41505
_d ành</w> 41505
kích_ cỡ</w> 41491
th ô</w> 41490
Thanh_ Bình</w> 41489
t át</w> 41486
Quang_ Trung</w> 41479
Tr í_ 41471
vùng_ xa</w> 41464
Kết_ luận</w> 41458
B A</w> 41453
Jose_ Mourinho</w> 41445
_th uỷ</w> 41444
ố i_th 41421
A IDS</w> 41400
th an_ 41382
r ang</w> 41380
n_trú c_sư</w> 41363
hình_ dáng</w> 41357
e i 41353
tạ o_dáng</w> 41345
bạo_ hành</w> 41344
x é</w> 41342
nhị n</w> 41330
bình_ ổn</w> 41328
Ju li 41327
V ượng</w> 41321
_th u</w> 41318
Th ánh</w> 41315
tr i_thức</w> 41313
điệ p_ 41306
U E 41301
Đ ôn</w> 41298
15 , 41282
thể _chất</w> 41259
EU RO</w> 41229
nuô i_trồng</w> 41215
ượ ng_th 41213
Phần_ Lan</w> 41207
bỏ_ hoang</w> 41190
F i</w> 41177
d ỗ</w> 41174
tà ng_ 41173
O li 41172
công_ dụng</w> 41162
v ia</w> 41161
Nam_ Mỹ</w> 41150
ag en</w> 41143
uỷ_ viên</w> 41142
tràn_ ngập</w> 41136
gi ận_ 41102
bao_ lâu</w> 41099
y m 41090
chứng_t ừ</w> 41083
Nguyễn_ Tấn_ 41081
14 / 41079
kho ai_tây</w> 41057
vừa_ mới</w> 41048
Bu ôn_ 41035
phấn_ khởi</w> 41027
thuyền_ viên</w> 41025
O ai</w> 41017
quá n_triệt</w> 41012
cấp_ bách</w> 40999
G V</w> 40988
n y</w> 40968
Đắk_ Nông</w> 40968
ngo ạn_ 40966
tàng_ hình</w> 40962
196 8</w> 40961
r ốt</w> 40956
F ar 40955
quán_ quân</w> 40953
27 / 40949
H iền_ 40940
F LC</w> 40934
L ực</w> 40927
Hợp_ đồng</w> 40910
Nig eria</w> 40909
nh ầm_lẫn</w> 40899
Pet er 40887
N AS 40883
đề_ cao</w> 40875
con_ giáp</w> 40875
n_ kinh</w> 40872
Đ ă 40871
Du_ khách</w> 40861
chiế u_ 40846
c ởi</w> 40845
9 5%</w> 40834
h am_ 40833
Su per 40833
e n_t 40822
N a</w> 40814
Z ing 40814
ủ a</w> 40811
D jo 40809
công_ đoạn</w> 40803
n_th ờ</w> 40800
Th ờ 40792
ch ân_t 40784
nhỏ_ bé</w> 40784
K m</w> 40777
giam_ giữ</w> 40776
I dol</w> 40770
nhiễ u</w> 40766
đ iêu_ 40759
th ư 40756
es - 40753
S lo 40739
H ậ 40727
X e_ 40726
bù_ đắp</w> 40720
l ệ_ 40719
D iệu</w> 40715
Ne x 40699
cục_ bộ</w> 40695
do_ vậy</w> 40693
th iên</w> 40685
sh i 40683
L ar 40680
cự u_ 40676
tổng_ giám_đốc</w> 40673
Anh_ hùng</w> 40656
x ài</w> 40644
qu ái_ 40644
x ì</w> 40632
1, 3</w> 40611
lôi_ kéo</w> 40600
phản_ công</w> 40591
197 2</w> 40587
Tr úc_ 40578
T on 40577
ngh ịch</w> 40551
4, 5</w> 40548
ngoạn_ mục</w> 40541
Ngọc_ Anh</w> 40527
s ào</w> 40513
ng_th ần</w> 40500
mã i_ 40500
6 0.000</w> 40499
198 3</w> 40499
kháng_ cáo</w> 40492
đ ấm</w> 40483
n ể</w> 40469
ng_th ân</w> 40469
quy_ chuẩn</w> 40458
_l uỵ</w> 40454
cô _lập</w> 40449
nhà_ hát</w> 40442
C IA</w> 40441
đ ụng</w> 40427
y_th uốc</w> 40422
M ay_mắn</w> 40420
is _S 40411
thương_mại_ điện_tử</w> 40393
đánh_ đập</w> 40384
Tổng_th ư_ký</w> 40384
lo t 40376
diện_ mạo</w> 40366
Q U 40365
t ứ</w> 40363
điệ n_t 40358
C ủ_ 40347
lưu_tr ú</w> 40341
đó ng_tàu</w> 40339
tră n_trở</w> 40338
ngh ẽn</w> 40327
Nguyễn_ Hoàng_ 40324
_t ộc</w> 40320
u d</w> 40319
chân_ dung</w> 40315
cứng_ rắn</w> 40312
3 7 40292
ng ửa</w> 40287
ww w 40285
ực_th ăng</w> 40279
ả_th ân</w> 40268
thương_ vong</w> 40266
đường_ lối</w> 40260
qu i_ 40253
qu ỹ_ 40253
m y</w> 40251
am s</w> 40251
phát_t án</w> 40244
dân_t ệ</w> 40237
Huyện_ uỷ</w> 40233
Bộ_ đội</w> 40231
gió_ giật</w> 40230
mất_ mát</w> 40225
uỷ_ ban</w> 40212
danh_ hài</w> 40197
khuy ết</w> 40185
K az 40168
tr ố 40156
bệnh_ nhi</w> 40155
ươ ng_tr 40153
D N 40148
A ri 40137
tâ m_t 40126
B ởi_vì</w> 40124
ch ót</w> 40122
s àng</w> 40111
nhà_ quản_lý</w> 40110
n ử 40106
Phú _L 40099
_s ấu</w> 40098
tiếp_ viên</w> 40091
qu ất</w> 40087
Kh uy 40082
18 / 40077
_si nh_thái</w> 40075
giải_ đáp</w> 40058
Long_ Thành</w> 40055
ng ài</w> 40053
d ĩ</w> 40037
có_ điều</w> 40033
n ang</w> 40032
th ạc_sĩ</w> 40031
ng_th ang</w> 40030
an t 40017
T O</w> 40016
chính_trị_ gia</w> 40012
A C 40000
H ường</w> 39994
Tr ải</w> 39989
s ọ</w> 39985
đàn_ em</w> 39985
L e_ 39981
hoả _lực</w> 39981
xuất_ nhập_khẩu</w> 39977
K ỷ_ 39976
po t</w> 39972
Thực_ ra</w> 39949
Ô ng_ 39946
om etr 39941
es h</w> 39938
đ ò</w> 39921
_ E 39920
For m 39918
Đ ế</w> 39910
Ch o_ 39881
th iêu</w> 39880
NT M</w> 39877
n ạo_ 39872
chị_ gái</w> 39870
tinh_ vi</w> 39867
Djo kovic</w> 39860
2 1. 39858
Thu ỵ</w> 39849
l ũ_l 39848
ch_th u</w> 39843
oun ce</w> 39829
toạ_ đàm</w> 39826
ở_d ữ_liệu</w> 39814
l ánh</w> 39801
l ồng_ 39799
thu ần</w> 39794
thích_ ứng</w> 39793
duyên_ dáng</w> 39787
HC N</w> 39785
phò ng_tr 39782
r anh_giới</w> 39778
đắc_ cử</w> 39777
Vũ_ Văn_ 39776
tỉ a</w> 39776
Hoà ng_tử</w> 39773
U 20</w> 39766
Kh í 39759
t ung_ 39743
25 . 39732
s ành_ 39728
o C</w> 39703
bảo_hiểm_ xã_hội</w> 39702
ống_tr ị</w> 39689
ĐT QG</w> 39683
k a 39679
cấp_ nước</w> 39676
ph à</w> 39672
quy_t ụ</w> 39670
ường_tr ú</w> 39667
trình_ làng</w> 39662
thảm_ đỏ</w> 39658
đôn_ đốc</w> 39653
H ướng</w> 39651
th ứ_ 39649
Viet in 39648
t ụt</w> 39640
Thu_ Thảo</w> 39636
biểu_ dương</w> 39635
Đ ọc</w> 39631
B XH</w> 39627
M ạc_ 39626
ưu_ ái</w> 39614
Nh ớ</w> 39603
chuyển_ hướng</w> 39598
T ak 39596
hạ ch</w> 39596
ạ_l ạc</w> 39596
trung_ cấp</w> 39590
In ter</w> 39566
g or 39563
F err 39549
đường_ bay</w> 39548
sinh_ động</w> 39546
Khoa_ học_ 39530
l ướt</w> 39523
chung_ cuộc</w> 39521
20 25</w> 39517
Bạch_ Mai</w> 39505
4 50</w> 39503
kinh_ điển</w> 39500
tỉ_ m 39500
Gol d 39499
sức_ sống</w> 39495
Bre xit</w> 39486
th ống_trị</w> 39480
Nhân_ viên</w> 39479
Tuyên_ giáo</w> 39474
e v 39463
Đ iển_hình</w> 39458
Van_ Gaal</w> 39458
thương_ binh</w> 39447
x en</w> 39437
phân_ chia</w> 39427
cự _ly</w> 39424
S á 39422
TN GT</w> 39420
b il 39419
24 . 39416
Jen nif 39402
đa_ năng</w> 39398
tiện_ nghi</w> 39385
bệnh_ lý</w> 39380
l ách</w> 39379
ý_ muốn</w> 39376
F- 35</w> 39365
ro v</w> 39364
bất_ lực</w> 39358
g h</w> 39356
u l</w> 39354
F lori 39352
Uỷ_ban_ nhân_dân</w> 39350
cho áng_ 39343
vô_t ư</w> 39342
lệ_ phí</w> 39341
nh_tr ưởng</w> 39340
H or 39333
Mo del</w> 39319
AS I 39316
hà n</w> 39315
tr a_ 39304
m ỳ</w> 39302
im b 39300
hồ n_ 39298
a kh 39276
Đ ậu</w> 39276
k o_ 39275
V iễn_thông</w> 39274
chào_ đời</w> 39271
ốc_ liệt</w> 39262
v iền</w> 39260
n ữ_hoàng</w> 39235
ồ_ ạt</w> 39232
Tu ân</w> 39231
K or 39230
mưu_ sinh</w> 39213
nghỉ_ việc</w> 39192
ph yl 39183
hoạt_ hình</w> 39180
C át</w> 39175
Tiế p_th 39173
thầ n_th 39172
ic k_ 39171
thăng_ hoa</w> 39170
xâm_ lược</w> 39165
H ào</w> 39161
a t_ 39149
o c 39143
P G</w> 39143
201 1- 39140
cảnh_ cáo</w> 39138
sản_ phụ</w> 39127
mo del</w> 39126
Tình_ hình</w> 39126
Đôi_ khi</w> 39126
xem_ lại</w> 39125
ul a</w> 39123
T ất_ 39103
es el</w> 39099
st y 39095
M ay 39080
Ste ph 39080
gus on</w> 39067
nội_th ành</w> 39066
thịnh_ vượng</w> 39065
I D</w> 39061
vậ n_tốc</w> 39049
dự ng_ 39042
ki nh_t 39041
cô ng_trường</w> 39032
b ôi</w> 39030
Hà nh_trình</w> 39030
Nguyễn_ Trọng_ 39028
thực_ khách</w> 39027
răn_ đe</w> 39023
li s</w> 39020
hội_ chợ</w> 39020
ượng_ đài</w> 39009
Har ry_ 39006
N ay</w> 39004
Lu k 39000
m ờ 38999
kích_ động</w> 38998
tic s</w> 38995
nh ã</w> 38985
Ban_ Bí_thư</w> 38975
kh ốc_liệt</w> 38972
Blo om 38955
v é 38951
m g</w> 38948
c tu 38937
Giả m</w> 38935
_d iệt</w> 38917
d an 38907
Ag ri 38904
tị ch_thu</w> 38895
đ ào_ 38885
lây_ nhiễm</w> 38885
M ông_ 38882
một_ khi</w> 38878
ẫu_ nhiên</w> 38878
W ol 38876
Ge ometr 38870
Nông_ dân</w> 38869
3- 1</w> 38866
14 0</w> 38863
đánh_ đầu</w> 38856
Fer guson</w> 38856
Qu an 38855
The_ F 38844
is h 38843
Vũ_ Thị_ 38843
c ột_ 38842
ng_t ộc</w> 38839
tuổi_th ơ</w> 38837
Tuy _ 38820
FB I</w> 38810
V ill 38807
cả m_t 38807
17 / 38801
Người_ phát_ngôn</w> 38797
M id 38795
Đội_ hình</w> 38791
Hội_ chợ</w> 38787
T ố 38779
Me g 38766
Ba_ Vì</w> 38764
l l</w> 38750
c_t ội</w> 38737
S om 38734
H òn_ 38722
mô - 38722
hiền_ lành</w> 38717
ị _trường</w> 38714
cảm_ động</w> 38714
cá n_ 38689
mãi_ mãi</w> 38689
Geometr idae</w> 38679
M es 38677
lo r</w> 38673
M an</w> 38666
D om 38659
đ úp</w> 38658
e p 38653
ước_t iên</w> 38638
Kh ối</w> 38630
b re 38618
tàu_ khu_trục</w> 38617
b ạt</w> 38610
Ng ô</w> 38609
ou t</w> 38606
Bùi_ Thị_ 38595
con_ nhỏ</w> 38582
t ờ 38573
bao_ vây</w> 38572
đánh_ cắp</w> 38571
lý _luận</w> 38559
Thanh_ Hằng</w> 38548
Â n</w> 38547
lữ_ hành</w> 38542
ỷ _diệt</w> 38541
cá _thể</w> 38524
tả i_trọng</w> 38518
hậ u_trường</w> 38516
O DA</w> 38513
cá_tr a</w> 38505
Tr ẻ_ 38497
nghi_ lễ</w> 38490
mở_ đầu</w> 38483
ng ẫu_nhiên</w> 38480
v ac 38470
ch ẳng_ 38463
ag es</w> 38460
Ch iểu</w> 38457
làm_ khách</w> 38457
từ _từ</w> 38443
D ân_t 38442
h ào</w> 38429
Sức_ khoẻ</w> 38428
29 / 38421
Cộng_ hoà_ 38412
N E 38409
gi ang_ 38407
man n</w> 38404
chấn_ động</w> 38403
thu ế_ 38402
H ang_ 38396
ế_th ị_trường</w> 38396
qu ấy_ 38385
h ít</w> 38378
C ô_ 38371
tổ _ 38371
ng oài_ra</w> 38364
kinh_ ngạc</w> 38362
dàn_ dựng</w> 38360
Z u 38354
U 21</w> 38343
Trần_ Ngọc_ 38333
c ay_ 38327
sản_ sinh</w> 38316
it o</w> 38310
đ ói_ 38279
Th ầ 38271
dễ _chịu</w> 38265
Har i_Won</w> 38262
o vic</w> 38256
tuỳ _thuộc</w> 38252
3 60</w> 38240
ch _trình</w> 38240
danh_ giá</w> 38231
Quan_ hệ</w> 38220
r ầm_ 38216
máy_ chủ</w> 38213
ê n_th 38199
se y</w> 38197
khẩ n</w> 38177
G ặp</w> 38170
Ng ay_lập_tức</w> 38170
Th ủ 38166
d ân_th 38154
HC Đ</w> 38154
cầ n_ 38152
h iếp</w> 38145
R E 38145
Dam as 38144
ph àn_ 38143
phàn_ nàn</w> 38143
t ườ 38140
Bộ_ Tư_lệnh</w> 38138
Việt_ kiều</w> 38130
Tham_ dự</w> 38126
vững_ mạnh</w> 38123
gi ặc</w> 38108
Khả_ năng</w> 38102
th ơ_ 38101
t ti</w> 38089
c úi</w> 38082
đ ính</w> 38079
i o</w> 38077
www . 38065
x ịt</w> 38057
Không_ gian</w> 38054
r ớt</w> 38052
ấp_ xỉ</w> 38051
phế _liệu</w> 38046
Thiện_ Nhân</w> 38043
tỷ _trọng</w> 38040
hệ _sinh_thái</w> 38039
ng_th ú</w> 38027
tình_th ế</w> 38022
W eb 38019
w _ 38017
Hy_ vọng</w> 38006
C la 37998
hu ỷ_diệt</w> 37993
log o</w> 37978
Ứng_ dụng</w> 37975
S ol 37961
Chất_ lượng</w> 37960
N iềm</w> 37957
ng_t úng</w> 37939
hải_ lý</w> 37935
h ông</w> 37934
gi a 37927
hoài_ nghi</w> 37926
trái_ đất</w> 37914
E s 37909
đ ư 37904
bó p</w> 37899
tiếp_th ị</w> 37891
Điện_ Biên_ 37886
hộp_ số</w> 37884
tiêu_ chảy</w> 37875
i_th uốc</w> 37874
hứ ng_thú</w> 37864
ch ấn</w> 37850
ng_tr ưng</w> 37837
gi ữ 37834
_ch iếu</w> 37832
T ứ_ 37828
chạ m_tr 37828
phụ_ cấp</w> 37824
198 1</w> 37824
chế_t ài</w> 37808
b ọt</w> 37806
biết_ bao</w> 37806
m o</w> 37804
k iện_t 37803
ch ez</w> 37803
Hữu_ Thắng</w> 37801
tập_ kết</w> 37800
ông_ xã</w> 37797
cứ _ 37796
I d 37793
i z 37789
ít_ nhiều</w> 37771
Ch ống</w> 37764
Ch ắc_chắn</w> 37757
buộ c_tội</w> 37757
Sân_ bay</w> 37754
x ấp_xỉ</w> 37742
Chi_ nhánh</w> 37724
S ông_ 37721
enc ia</w> 37718
b s</w> 37717
c el 37708
S C</w> 37703
kh ốn_ 37687
căn_ bản</w> 37682
Med ia</w> 37670
in e 37666
Trung_ Hoa</w> 37649
ẫn_ nộ</w> 37630
g ra 37626
chuyên_tr ách</w> 37619
tr ầm</w> 37591
AT TP</w> 37591
ắc_ xin</w> 37584
t ượ 37580
X á</w> 37578
binh_ lính</w> 37578
v iếng</w> 37573
1, 6</w> 37565
N ỗi</w> 37561
n áo_ 37543
o xy_ 37540
đầu_ bếp</w> 37536
mật_ khẩu</w> 37532
í_th ức</w> 37530
Mo tor 37523
ch ậ 37506
lu ận_ 37505
Tr àng_ 37504
Quy _chế</w> 37503
Th à 37500
thích_ nghi</w> 37498
ụ t_ 37495
Nguyễn_ Mạnh_ 37480
chỉ _dẫn</w> 37480
ất_th ân</w> 37472
T ìm</w> 37462
2. 500</w> 37462
L ợi_ 37453
Ph ụng</w> 37439
ấu_ giá</w> 37438
s in</w> 37435
phong_t ục</w> 37428
Đường_ sắt</w> 37416
h ệt</w> 37405
Nh uận</w> 37402
al l</w> 37400
et sk</w> 37393
ót_ xa</w> 37390
Kh ai</w> 37382
Lầu_ Năm_ 37377
s ừng</w> 37367
l ạ_l 37366
vĩnh_ viễn</w> 37358
R - 37344
NGUY Ễ 37335
T ô</w> 37329
t iên</w> 37328
do gan</w> 37318
m b 37315
Th ắm</w> 37314
b ẩm_ 37306
ph ủ_ 37298
R S</w> 37293
0 00</w> 37283
V ô_ 37282
d ạ</w> 37273
P la 37265
d ge</w> 37260
_s ạn</w> 37259
Mô _hình</w> 37256
GP MB</w> 37250
Kh ách 37240
D J</w> 37232
Câu_ lạc_bộ</w> 37232
ể_ bơi</w> 37230
28 . 37203
độ c_th 37202
Th iết_bị</w> 37201
cầu_th ang</w> 37196
m anh_ 37191
W o 37188
trung_ học_ 37184
b ọ 37180
chủ_ đạo</w> 37178
Bắt_ đầu</w> 37178
16 , 37175
Tho ả_thuận</w> 37171
B inh_ 37168
anh_ nh 37165
li ke</w> 37156
[...]
